<unk>	0
,	-2.96395
▁the	-3.22512
▁of	-3.50952
▁and	-3.5142
.	-3.52029
s	-3.85382
▁a	-3.95181
▁in	-3.98453
▁to	-4.13229
▁	-4.34965
▁is	-4.50602
ed	-4.54887
-	-4.66674
ing	-4.76638
▁artists	-4.80401
▁art	-5.00957
▁The	-5.10101
▁an	-5.11973
▁for	-5.17795
▁by	-5.23837
e	-5.24711
▁with	-5.2944
▁space	-5.34351
d	-5.45047
▁as	-5.49154
▁on	-5.57093
▁that	-5.57981
y	-5.60493
▁its	-5.61669
▁are	-5.83713
▁work	-5.84372
▁exhibition	-5.87625
▁(	-5.88153
▁from	-5.89253
n	-5.89262
▁was	-5.89299
ly	-5.90612
▁artist	-5.92275
▁exhibitions	-5.92294
▁has	-5.93248
'	-5.93694
▁it	-6.00459
▁be	-6.04775
▁at	-6.05396
t	-6.05745
’	-6.07031
▁place	-6.07714
:	-6.07782
▁we	-6.08112
▁artistic	-6.1156
▁In	-6.18244
ir	-6.18918
▁c	-6.19895
▁or	-6.21743
▁which	-6.24198
)	-6.24434
▁projects	-6.30342
en	-6.31282
a	-6.31919
▁project	-6.33122
▁new	-6.35547
▁It	-6.37051
▁this	-6.37341
▁A	-6.40031
ontemporary	-6.41234
o	-6.41956
▁Art	-6.47022
▁our	-6.47363
al	-6.51436
th	-6.53427
▁public	-6.55636
es	-6.57087
▁co	-6.57499
–	-6.61982
▁gallery	-6.63034
r	-6.63725
▁who	-6.63742
▁all	-6.68144
▁creation	-6.6834
▁been	-6.7011
▁support	-6.70715
▁not	-6.70797
▁works	-6.71295
re	-6.72245
▁arts	-6.74586
▁de	-6.75136
▁open	-6.75491
▁production	-6.75801
▁cultural	-6.78615
m	-6.79346
;	-6.8024
▁international	-6.80358
▁research	-6.81469
on	-6.84921
▁hav	-6.84983
lso	-6.85435
The	-6.8572
se	-6.88475
▁I	-6.88755
▁events	-6.88988
er	-6.89196
to	-6.90103
▁visual	-6.90215
▁non	-6.91438
/	-6.91777
▁through	-6.92453
▁young	-6.95139
▁S	-6.95272
▁We	-6.95306
▁association	-6.96373
▁first	-6.96429
▁founded	-6.97825
▁"	-6.98203
▁one	-6.98844
▁more	-6.99166
▁C	-6.99633
▁time	-7.00348
▁program	-7.01411
▁centre	-7.01679
▁collective	-7.01841
ntemporary	-7.01995
▁locat	-7.03442
▁area	-7.04112
▁present	-7.04194
▁practices	-7.05997
▁different	-7.06136
▁bet	-7.06439
is	-7.07683
"	-7.10452
▁other	-7.10936
▁local	-7.11502
but	-7.11518
▁where	-7.12283
▁re	-7.12696
in	-7.13657
▁dedicat	-7.1371
run	-7.1397
▁T	-7.13993
profit	-7.14895
▁can	-7.15075
▁well	-7.15407
an	-7.16446
▁media	-7.17875
▁M	-7.18212
▁activities	-7.18548
▁s	-7.18967
le	-7.19024
▁workshops	-7.19693
▁community	-7.20216
▁up	-7.20844
▁P	-7.21131
▁years	-7.21561
out	-7.2305
▁independent	-7.23449
▁design	-7.24207
▁will	-7.24696
ion	-7.25363
▁emerging	-7.25511
▁Since	-7.25546
▁practice	-7.25707
▁two	-7.27222
▁his	-7.27694
h	-7.27861
▁-	-7.28189
▁organization	-7.29291
▁based	-7.29727
▁O	-7.29866
▁since	-7.31305
▁F	-7.31559
▁social	-7.32583
▁them	-7.32746
▁each	-7.32777
▁current	-7.34725
▁part	-7.34891
▁group	-7.35083
i	-7.35257
▁site	-7.35492
▁create	-7.36924
▁studio	-7.37034
▁develop	-7.37092
▁platform	-7.38655
▁year	-7.39438
▁offer	-7.39445
st	-7.40363
▁city	-7.40919
f	-7.43635
▁experimental	-7.44911
▁performance	-7.45458
l	-7.46655
ial	-7.46689
ation	-7.46729
▁alternative	-7.4718
▁Space	-7.48014
ve	-7.48158
twe	-7.4838
▁B	-7.48539
S	-7.48917
▁b	-7.48922
able	-7.49785
▁Paris	-7.51551
▁establish	-7.51609
▁creative	-7.51693
▁structure	-7.52232
▁development	-7.53895
ian	-7.54553
▁workshop	-7.54611
▁un	-7.55096
▁members	-7.55158
▁E	-7.55297
▁spaces	-7.55578
”	-7.56217
▁family	-7.56239
▁“	-7.56272
▁created	-7.57134
▁forms	-7.5773
▁us	-7.58022
▁world	-7.58667
▁Berlin	-7.58676
▁R	-7.58678
▁focus	-7.58818
▁own	-7.59068
▁run	-7.59433
▁curator	-7.59723
▁working	-7.6003
2	-7.60612
▁dissemination	-7.61184
▁music	-7.61188
▁Gallery	-7.61289
▁Thi	-7.61941
▁Artists	-7.62235
▁L	-7.62957
wee	-7.63573
▁programming	-7.63811
▁G	-7.63941
A	-7.6529
▁out	-7.66545
▁host	-7.67274
▁scene	-7.67432
art	-7.67964
ry	-7.68763
▁together	-7.69073
▁multi	-7.69558
u	-7.69719
▁context	-7.70184
▁d	-7.71078
▁form	-7.71648
▁team	-7.71842
▁critical	-7.7199
▁With	-7.72111
▁culture	-7.73049
▁collection	-7.73065
▁do	-7.73749
us	-7.73851
▁dialogue	-7.74697
▁like	-7.74885
▁main	-7.75612
▁name	-7.7696
▁unique	-7.77641
▁three	-7.77719
▁than	-7.77869
▁small	-7.78537
▁no	-7.78684
▁take	-7.79032
ity	-7.79214
▁Arts	-7.79235
everal	-7.79263
ive	-7.79721
).	-7.80455
▁use	-7.80456
p	-7.80512
▁house	-7.80569
▁follow	-7.80687
▁same	-7.80897
▁building	-7.809
▁organized	-7.81259
▁bo	-7.81561
▁provide	-7.81895
ur	-7.81982
▁exchange	-7.8217
▁way	-7.82552
▁including	-7.83793
or	-7.83848
ted	-7.83888
▁active	-7.84756
▁show	-7.84791
▁al	-7.85124
▁Th	-7.85308
▁experience	-7.85373
▁many	-7.87067
▁itself	-7.87073
▁con	-7.87642
▁set	-7.87737
▁wide	-7.87863
ut	-7.88045
▁aims	-7.88333
▁within	-7.88646
▁l	-7.88777
ment	-7.90104
▁people	-7.90353
▁various	-7.90355
▁encourage	-7.90425
▁et	-7.90813
▁t	-7.91152
▁collaboration	-7.92171
c	-7.92724
▁ha	-7.92957
▁allow	-7.93125
▁solo	-7.9382
▁free	-7.93963
▁song	-7.94041
we	-7.94398
round	-7.94548
ng	-7.94707
▁national	-7.94788
at	-7.94802
▁curators	-7.95101
▁programme	-7.95364
▁share	-7.96608
w	-7.96701
ce	-7.96747
&	-7.97372
▁City	-7.9747
▁experimentation	-7.97508
▁/	-7.97529
▁promote	-7.97946
▁3	-7.98238
▁ideas	-7.98423
▁aim	-7.98619
k	-7.99158
▁only	-7.99441
▁initiative	-7.99449
▁plastic	-7.99466
▁professional	-7.99478
ine	-7.99791
▁dur	-7.99867
▁performances	-8.00293
▁environment	-8.01383
▁Contemporary	-8.01421
ty	-8.01597
▁e	-8.01818
▁ab	-8.02365
▁start	-8.02501
▁exhibit	-8.02574
lin	-8.04034
▁offers	-8.04038
▁W	-8.0452
▁such	-8.04939
▁means	-8.05075
temporary	-8.05087
▁education	-8.05226
▁over	-8.05239
▁want	-8.053
ne	-8.05416
ated	-8.05768
▁there	-8.06196
disciplinary	-8.07595
related	-8.08011
▁access	-8.08092
▁Street	-8.08922
▁life	-8.09004
▁activity	-8.09013
▁concept	-8.09265
the	-8.09449
▁20	-8.09843
▁To	-8.09859
▁old	-8.10023
▁produce	-8.10188
▁Artist	-8.10543
▁so	-8.10744
▁interest	-8.10795
▁he	-8.11909
▁make	-8.1253
ers	-8.12602
▁continue	-8.12922
▁m	-8.1304
▁video	-8.1309
▁dynamic	-8.1309
▁history	-8.13091
▁f	-8.13164
▁now	-8.13533
▁most	-8.13672
▁period	-8.1449
▁D	-8.14663
ten	-8.14781
▁give	-8.15158
▁presentation	-8.15941
ch	-8.16105
▁some	-8.16346
▁large	-8.17229
T	-8.17233
▁outside	-8.17445
▁role	-8.17453
▁galleries	-8.17527
Each	-8.17547
b	-8.17572
▁others	-8.17666
▁center	-8.17737
▁Centre	-8.17817
and	-8.18382
▁De	-8.18689
ar	-8.18961
▁2011	-8.19087
▁real	-8.19212
▁developed	-8.19254
space	-8.1981
▁material	-8.20319
▁audience	-8.20328
▁you	-8.20634
▁studios	-8.21162
▁process	-8.21755
▁Association	-8.21986
▁Studio	-8.21991
▁residencies	-8.22075
▁2013	-8.22077
▁New	-8.22083
▁political	-8.22403
me	-8.22403
C	-8.22978
▁meetings	-8.23519
▁audiences	-8.23665
▁abo	-8.24101
▁As	-8.24277
E	-8.24673
ways	-8.24776
▁individual	-8.25253
ally	-8.25413
▁la	-8.25708
▁creat	-8.25748
▁se	-8.25764
▁under	-8.25955
very	-8.26257
▁particular	-8.26745
▁important	-8.2679
▁NICC	-8.26838
▁private	-8.26839
▁century	-8.26842
▁issues	-8.26877
▁+	-8.27022
▁being	-8.27028
▁moved	-8.27275
▁For	-8.27382
▁als	-8.27557
▁self	-8.27565
▁programs	-8.27589
▁Ou	-8.27645
▁1	-8.2781
▁La	-8.2806
▁bor	-8.28838
▁He	-8.28971
D	-8.29034
▁2010	-8.29159
▁shows	-8.29214
▁network	-8.29357
▁change	-8.29408
▁call	-8.29455
▁An	-8.29667
▁field	-8.30085
▁point	-8.30146
▁compos	-8.30425
▁residence	-8.30533
▁meeting	-8.30574
...	-8.31743
▁knowledge	-8.31744
▁district	-8.31744
▁diverse	-8.31746
▁made	-8.31759
▁remain	-8.31776
▁among	-8.31785
▁publishing	-8.31811
▁goal	-8.31881
▁students	-8.32056
▁transform	-8.32228
▁communication	-8.32443
▁reflect	-8.32465
▁p	-8.32642
▁after	-8.32663
▁2	-8.32721
▁institutions	-8.33053
ro	-8.33656
ic	-8.33813
▁hear	-8.34025
▁en	-8.34163
▁N	-8.34208
▁Re	-8.34591
▁film	-8.34831
ies	-8.35299
▁street	-8.35321
▁reflection	-8.35349
▁provid	-8.3543
▁room	-8.35766
▁location	-8.36379
▁U	-8.36477
▁consider	-8.36939
▁available	-8.37007
▁while	-8.37043
▁conferences	-8.37068
▁2012	-8.3709
▁Frank	-8.37112
▁invited	-8.37422
▁become	-8.37451
▁disciplines	-8.37763
▁des	-8.37768
▁areas	-8.38006
▁cross	-8.38196
▁developing	-8.38836
▁V	-8.39196
range	-8.39412
▁idea	-8.39609
ary	-8.39623
▁presented	-8.39734
▁experiences	-8.39782
▁2014	-8.4023
▁go	-8.40231
0	-8.40292
▁welcome	-8.40462
go	-8.4067
▁manage	-8.40826
▁40	-8.4089
▁Found	-8.41278
for	-8.41461
▁Fr	-8.41656
▁Furnace	-8.42563
▁pool	-8.42568
▁House	-8.42587
▁Foundation	-8.42596
▁etc	-8.42636
▁order	-8.42685
In	-8.42763
▁France	-8.42769
▁proposals	-8.43298
it	-8.43875
g	-8.43992
ra	-8.4425
▁fields	-8.44445
ther	-8.44646
ard	-8.44755
▁initiatives	-8.45114
▁experiment	-8.45645
▁question	-8.45747
▁explore	-8.45765
▁w	-8.45831
▁th	-8.46111
▁publication	-8.47144
z	-8.47905
um	-8.48108
▁long	-8.48386
▁H	-8.48398
—	-8.48445
▁Saint	-8.48446
▁digital	-8.48447
▁down	-8.48478
▁society	-8.48486
▁photography	-8.48497
▁Canada	-8.48567
▁institutional	-8.48568
▁making	-8.48646
▁what	-8.48673
▁Brussels	-8.48696
▁Kunst	-8.48751
▁addition	-8.49039
▁2017	-8.49168
x	-8.49239
▁pro	-8.49288
▁per	-8.49371
▁months	-8.49429
▁inter	-8.49573
ie	-8.49613
▁le	-8.50019
▁produced	-8.5006
▁publications	-8.50188
▁5	-8.5026
▁wh	-8.50854
▁original	-8.50856
▁any	-8.51032
▁collaborations	-8.51363
led	-8.51665
ful	-8.51923
▁opportunit	-8.52014
P	-8.52033
▁opening	-8.52206
▁sound	-8.53016
▁installation	-8.53075
▁exist	-8.53284
▁end	-8.53454
▁think	-8.54096
▁buil	-8.54303
▁annual	-8.54431
cal	-8.54671
▁laboratory	-8.5471
▁home	-8.54729
▁floor	-8.54822
▁every	-8.54825
▁concerts	-8.54867
terdisciplinary	-8.54881
▁bring	-8.54894
▁promotion	-8.54968
▁constant	-8.551
▁contempora	-8.55174
tion	-8.55287
▁last	-8.55332
▁K	-8.55545
▁today	-8.5555
▁editions	-8.55774
▁organize	-8.56029
son	-8.5607
▁St	-8.56121
▁fund	-8.56966
ant	-8.57875
▁member	-8.57888
▁exchanges	-8.58127
K	-8.5817
▁close	-8.58604
based	-8.59271
▁Director	-8.59545
ist	-8.59565
▁institution	-8.59611
▁direction	-8.59671
It	-8.59755
▁level	-8.59913
▁need	-8.59916
▁Ca	-8.60151
▁At	-8.60443
de	-8.60587
▁meet	-8.60718
▁whe	-8.61235
▁‘	-8.61362
▁graphic	-8.61362
▁Club	-8.61362
▁result	-8.61363
▁wife	-8.61366
▁possible	-8.61379
▁common	-8.61387
▁desire	-8.61421
▁screenings	-8.61437
▁Europe	-8.61484
▁2007	-8.61505
▁talks	-8.61541
▁may	-8.61601
▁throughout	-8.61658
▁critics	-8.61717
▁select	-8.61768
▁writers	-8.61783
▁Jean	-8.61785
▁early	-8.61816
▁personal	-8.61817
ence	-8.61873
▁vision	-8.62066
▁historical	-8.62168
I	-8.6232
▁times	-8.62377
▁Loc	-8.62419
▁tools	-8.62927
▁her	-8.62954
▁22	-8.62996
▁installations	-8.63183
ate	-8.64307
▁professionals	-8.6435
▁2016	-8.64551
et	-8.64786
▁Bo	-8.65019
▁serve	-8.65212
▁print	-8.65316
▁Jan	-8.65442
▁off	-8.6545
fter	-8.65463
ven	-8.65657
▁19	-8.65845
▁Ar	-8.66243
▁structures	-8.66292
▁Fro	-8.66586
ts	-8.6684
▁18	-8.67162
▁tool	-8.67344
▁Ma	-8.6738
▁expand	-8.68007
▁archive	-8.68118
▁day	-8.6834
▁books	-8.68458
▁El	-8.68465
à	-8.68505
▁spirit	-8.68505
▁1990	-8.68511
▁poetry	-8.68512
▁commitment	-8.68512
▁1980	-8.68515
▁Milan	-8.68516
▁began	-8.68536
▁nature	-8.6854
▁2006	-8.68542
▁past	-8.68571
▁permanent	-8.68635
▁sense	-8.68723
▁known	-8.68805
▁living	-8.68813
▁sharing	-8.68845
▁West	-8.68953
thing	-8.69292
▁ex	-8.69347
▁Projects	-8.69708
▁special	-8.69765
▁my	-8.69817
▁general	-8.69894
▁includes	-8.70088
▁full	-8.70151
▁economic	-8.70495
▁contribute	-8.70577
▁Dur	-8.71317
he	-8.71322
B	-8.71898
▁h	-8.72011
▁promotes	-8.72028
▁varie	-8.72108
L	-8.72318
▁Be	-8.72742
▁She	-8.72993
5	-8.73386
▁Open	-8.73564
am	-8.73941
▁include	-8.7401
cultural	-8.74049
▁live	-8.74297
AND	-8.74378
▁position	-8.74439
▁view	-8.74514
still	-8.74677
▁museum	-8.74792
▁value	-8.75219
▁tradition	-8.75295
▁2015	-8.75374
▁lead	-8.75416
▁maintain	-8.75578
▁direct	-8.76088
▁region	-8.76101
▁Melbourne	-8.76197
▁abroad	-8.76197
▁diffusion	-8.76197
▁diversity	-8.76197
▁major	-8.76198
▁Pamela	-8.76198
▁beyond	-8.762
▁beginning	-8.76209
▁invite	-8.76221
▁would	-8.76254
▁consist	-8.76308
▁York	-8.76333
▁venue	-8.76344
▁David	-8.76347
▁four	-8.76414
▁2019	-8.76461
▁course	-8.76591
▁General	-8.76698
rom	-8.76736
▁2008	-8.76739
elle	-8.76969
▁commercial	-8.77283
▁By	-8.77545
▁here	-8.7761
▁internationally	-8.77722
▁networks	-8.78865
▁subject	-8.79052
line	-8.79246
▁materials	-8.79262
ould	-8.79311
▁address	-8.79336
é	-8.79363
▁est	-8.79628
);	-8.79691
mann	-8.79844
▁Pa	-8.80015
▁trans	-8.80127
ton	-8.80241
ze	-8.80319
as	-8.80333
een	-8.80721
man	-8.81141
ig	-8.81559
rs	-8.81763
ttention	-8.81996
▁promot	-8.8215
▁Through	-8.82197
up	-8.82368
ok	-8.82607
rd	-8.82682
▁relationship	-8.82824
▁potential	-8.82828
▁purpose	-8.8285
▁r	-8.82856
▁Ja	-8.82896
▁event	-8.8341
▁Li	-8.83584
▁link	-8.83763
▁generate	-8.83938
other	-8.84193
na	-8.84208
▁:	-8.84311
▁ways	-8.84315
▁install	-8.84368
la	-8.84483
▁Amsterdam	-8.8453
▁Council	-8.8453
▁September	-8.8453
▁periscope	-8.8453
▁study	-8.8453
▁residency	-8.84534
▁territory	-8.84534
▁1997	-8.84537
▁existence	-8.84546
▁Factory	-8.84554
▁library	-8.84587
angle	-8.84591
▁six	-8.84605
▁service	-8.84702
▁information	-8.84717
co	-8.84791
▁engaged	-8.84893
▁2020	-8.85073
▁resources	-8.85214
▁designers	-8.85219
ter	-8.85231
▁office	-8.8525
te	-8.85576
▁experimenting	-8.85595
F	-8.85675
▁walls	-8.85734
cient	-8.85819
▁resident	-8.86038
▁door	-8.86058
cause	-8.86333
▁needs	-8.86677
▁Ra	-8.86741
▁bu	-8.8777
ness	-8.88049
▁Mo	-8.88345
▁6	-8.88474
term	-8.88571
ith	-8.88622
ler	-8.88693
que	-8.88807
el	-8.88914
ent	-8.89064
uring	-8.90323
ily	-8.90363
om	-8.90398
▁shop	-8.90483
▁manag	-8.90936
town	-8.91161
since	-8.91245
▁apartment	-8.91744
▁model	-8.91792
age	-8.91812
▁object	-8.91866
nd	-8.92035
▁painting	-8.92112
1	-8.92185
▁24	-8.92219
vant	-8.92587
▁2018	-8.92629
▁Para	-8.92813
▁Lo	-8.93235
▁approach	-8.93391
ti	-8.93445
▁John	-8.93594
▁Gertrude	-8.93621
▁University	-8.93621
▁discourse	-8.93621
▁horns	-8.93621
▁School	-8.93621
▁help	-8.93622
▁innovative	-8.93622
▁entire	-8.93623
▁architecture	-8.93626
▁1998	-8.93629
▁short	-8.93629
▁contact	-8.9363
▁White	-8.9363
▁devote	-8.93631
▁few	-8.93635
▁Musical	-8.9364
▁collaborative	-8.93645
▁1970	-8.93674
▁OF	-8.93693
▁build	-8.93707
▁recent	-8.93742
▁respond	-8.93757
▁practitioners	-8.93783
▁audio	-8.93799
▁join	-8.93819
ical	-8.93854
▁writing	-8.93884
▁hall	-8.9389
▁defined	-8.93922
▁methods	-8.93931
▁Se	-8.93968
▁online	-8.93972
▁book	-8.93993
▁met	-8.93994
▁construction	-8.94046
▁invest	-8.94074
▁look	-8.94095
▁Al	-8.9428
▁term	-8.94338
▁former	-8.9442
▁Atelier	-8.94473
▁Paul	-8.94592
eries	-8.94599
▁van	-8.9467
▁las	-8.94698
▁organisations	-8.95022
...)	-8.95086
▁4	-8.95302
▁ten	-8.95385
cond	-8.957
Y	-8.95734
▁Run	-8.96204
ier	-8.96265
▁complex	-8.96352
▁inspir	-8.96484
▁temporary	-8.9652
▁Cal	-8.96591
N	-8.97174
▁ac	-8.97255
▁13	-8.97459
cadem	-8.97989
▁then	-8.98062
read	-8.98209
▁2009	-8.9854
▁1983	-8.98604
all	-8.98867
▁houses	-8.98931
▁contexts	-8.99403
▁Car	-8.99463
M	-8.99527
▁organiz	-8.99559
▁combin	-8.9984
cording	-9.00319
▁Du	-9.00423
▁1992	-9.00455
ite	-9.0078
▁Y	-9.0108
cross	-9.01395
▁shape	-9.01612
ance	-9.01752
site	-9.01804
▁system	-9.01873
▁Project	-9.01937
▁career	-9.02142
▁Do	-9.02482
▁action	-9.02594
ound	-9.02671
initiated	-9.03498
▁architect	-9.03617
mcube	-9.03621
▁Glassbox	-9.03621
▁Museum	-9.03621
▁Quebec	-9.03621
▁Australia	-9.03621
▁Cluj	-9.03621
▁America	-9.03621
▁Conical	-9.03624
▁communities	-9.03625
▁visibility	-9.03627
▁1996	-9.03628
▁square	-9.0363
▁2004	-9.03633
▁Place	-9.03635
▁held	-9.03639
▁conceptual	-9.03641
▁2002	-9.03684
▁step	-9.03723
▁musicians	-9.03736
▁understand	-9.03739
▁urban	-9.03786
▁Artpool	-9.03796
▁October	-9.03796
▁Pierre	-9.03796
▁Blindside	-9.03797
▁2000	-9.03802
▁modern	-9.03805
▁published	-9.03811
▁East	-9.03831
▁Marc	-9.03861
▁Fund	-9.03881
specially	-9.03912
▁natural	-9.03925
▁1999	-9.03948
▁response	-9.03989
▁Nicola	-9.0401
▁how	-9.04038
▁operates	-9.04045
▁researchers	-9.04047
▁growing	-9.0408
▁So	-9.0411
▁market	-9.04142
ara	-9.04159
▁web	-9.04242
▁10	-9.04289
▁industrial	-9.04292
▁base	-9.04314
▁vital	-9.04346
▁formats	-9.04504
▁Exhibitions	-9.04621
▁weeks	-9.04621
▁Romania	-9.04646
▁Van	-9.04673
▁multiple	-9.04807
▁commissions	-9.04848
old	-9.05167
▁thinking	-9.05175
V	-9.05225
▁specific	-9.05305
▁No	-9.05563
▁objects	-9.05589
▁16	-9.05985
▁theory	-9.06027
▁17	-9.06144
lock	-9.06449
▁k	-9.06692
▁experiments	-9.06936
ia	-9.06951
by	-9.07415
▁combine	-9.07555
▁facilitate	-9.08568
3	-9.08671
▁Na	-9.09115
ble	-9.09653
G	-9.09697
▁There	-9.10044
▁come	-9.10081
less	-9.10206
▁read	-9.1025
▁committe	-9.10295
▁places	-9.10304
▁ru	-9.10916
▁All	-9.10965
▁curat	-9.11559
nce	-9.11574
4	-9.11604
hose	-9.11777
▁Ho	-9.11862
▁60	-9.11901
▁me	-9.11914
▁i	-9.11921
▁On	-9.12377
year	-9.12388
limited	-9.12429
▁Ro	-9.12621
nt	-9.12692
▁framework	-9.12859
▁sculpture	-9.12882
▁act	-9.12972
▁thought	-9.12984
▁function	-9.12991
▁organisation	-9.13075
▁month	-9.13088
ke	-9.13092
▁Le	-9.13121
▁situation	-9.13203
▁broad	-9.13258
▁wall	-9.13302
▁play	-9.13523
▁cont	-9.13536
▁involv	-9.13669
ous	-9.13961
▁engage	-9.14203
▁discuss	-9.14321
org	-9.14349
zi	-9.14362
▁Program	-9.14699
|	-9.14732
▁London	-9.14732
▁Giannozzo	-9.14732
▁implement	-9.14732
▁further	-9.14733
▁collaborators	-9.14736
▁great	-9.14738
▁turn	-9.14739
SEA	-9.14741
▁Western	-9.14741
Château	-9.14745
▁exploration	-9.14756
▁accessib	-9.14759
▁Korea	-9.14761
Gasworks	-9.14762
▁autonom	-9.14797
▁Public	-9.14822
▁post	-9.14841
▁intention	-9.1485
▁visible	-9.14855
▁premises	-9.14855
▁decide	-9.14876
▁2005	-9.14908
▁charge	-9.14927
▁Michael	-9.14929
▁training	-9.14944
▁five	-9.14948
▁white	-9.14954
▁Simon	-9.14955
▁Center	-9.14967
▁chose	-9.15014
▁George	-9.15021
▁enable	-9.15025
▁central	-9.15047
ists	-9.15058
▁proposed	-9.15073
▁duo	-9.15073
ans	-9.151
▁regional	-9.15121
▁seem	-9.15123
▁reach	-9.15125
▁actors	-9.15181
ice	-9.15264
▁committee	-9.15309
▁official	-9.15311
▁Michele	-9.15321
▁Site	-9.15326
▁du	-9.15715
ix	-9.15781
▁participate	-9.15811
(	-9.15822
ge	-9.15842
ca	-9.15851
▁discussions	-9.15877
▁expanded	-9.15982
▁disseminate	-9.16164
▁centres	-9.16246
ien	-9.16302
▁residents	-9.16452
▁Ard	-9.16826
▁paintings	-9.1688
▁King	-9.16885
▁g	-9.16917
fri	-9.16941
▁dis	-9.16961
▁terms	-9.17051
▁ma	-9.17381
use	-9.17538
▁Po	-9.18085
ise	-9.18134
un	-9.18168
▁deal	-9.18352
▁produc	-9.18553
ting	-9.18624
▁kind	-9.18814
▁rooms	-9.18958
ization	-9.19128
▁residences	-9.19138
til	-9.19343
▁presentations	-9.19354
cy	-9.19479
day	-9.19579
lo	-9.19885
▁Sp	-9.2033
▁les	-9.2054
emporary	-9.20553
▁Kar	-9.20854
came	-9.20931
▁giv	-9.20975
be	-9.21327
▁fact	-9.21357
▁J	-9.21631
lly	-9.22002
▁beca	-9.22041
OR	-9.22284
ose	-9.2281
il	-9.22823
▁high	-9.23269
▁she	-9.23458
▁Martin	-9.23808
▁sp	-9.23917
ring	-9.24524
▁(197	-9.24551
▁text	-9.2463
visual	-9.24656
▁Luc	-9.24752
mission	-9.24826
pe	-9.25186
▁Fin	-9.25296
au	-9.25319
▁school	-9.25458
▁foundation	-9.25464
▁projet	-9.25499
▁edition	-9.25574
▁aesthetic	-9.25576
▁image	-9.25577
▁discipline	-9.25639
▁wine	-9.25656
▁thematic	-9.25679
CE	-9.2572
▁intervention	-9.25738
ck	-9.25778
▁generation	-9.2579
▁historic	-9.25933
ities	-9.25955
mental	-9.26039
▁fac	-9.26053
▁int	-9.26139
▁7	-9.26205
▁focuse	-9.26412
▁Sara	-9.2644
▁commission	-9.26551
▁And	-9.26638
▁Sé	-9.26732
▁Michel	-9.26955
▁Canad	-9.26972
▁(2012	-9.27033
!	-9.27038
▁50	-9.27042
▁Over	-9.2705
▁Com	-9.27231
▁1901	-9.27232
▁Balamuc	-9.27232
▁Edinburgh	-9.27232
▁November	-9.27232
▁cinema	-9.27232
▁conditions	-9.27232
▁effort	-9.27232
▁flexible	-9.27232
▁hybrid	-9.27232
▁Madrid	-9.27232
▁LOOP	-9.27232
▁freedom	-9.27233
▁April	-9.27233
▁literature	-9.27233
▁future	-9.27233
▁Situ	-9.27234
▁ZETA	-9.27234
▁company	-9.27235
▁previous	-9.27235
▁Village	-9.27235
▁lectures	-9.27236
selves	-9.27237
▁cooperative	-9.27237
▁1986	-9.27239
▁creativity	-9.27239
▁single	-9.27241
▁Peter	-9.27242
▁foster	-9.27243
▁socio	-9.27244
▁landscape	-9.27247
▁much	-9.27247
▁Laurence	-9.2725
id	-9.27265
▁conceived	-9.27267
▁yet	-9.27277
▁Front	-9.27278
▁body	-9.27281
▁movement	-9.27281
▁carrie	-9.27299
io	-9.27303
▁Spain	-9.27343
▁Germany	-9.27344
▁Lyon	-9.27375
▁surround	-9.27387
ww	-9.27405
▁content	-9.27407
▁word	-9.27445
▁occasion	-9.27447
▁regular	-9.27448
▁TCB	-9.27452
▁IFP	-9.27453
▁regularly	-9.27453
▁summer	-9.27464
▁state	-9.27466
▁longer	-9.27471
▁care	-9.27546
▁rent	-9.27596
▁Man	-9.276
▁drawings	-9.27607
▁emphasi	-9.27611
garde	-9.27619
▁learning	-9.27684
▁approaches	-9.27703
▁virtual	-9.27764
▁exposure	-9.27767
▁Di	-9.27854
▁processes	-9.27886
▁contribut	-9.27889
▁Tom	-9.27898
▁hours	-9.27899
▁number	-9.27902
▁organis	-9.28072
▁100	-9.28091
▁Young	-9.28092
▁included	-9.28095
▁partnerships	-9.28291
▁En	-9.28346
op	-9.28351
wer	-9.28398
▁came	-9.28441
▁May	-9.28444
▁bot	-9.28493
HE	-9.28612
ongo	-9.28613
▁ge	-9.28649
▁Laur	-9.28827
ries	-9.28836
▁origin	-9.2888
▁x	-9.28926
▁line	-9.28962
▁generations	-9.28981
6	-9.29242
▁participat	-9.29692
▁put	-9.29823
ley	-9.29826
▁cm	-9.29848
▁relationships	-9.29915
▁see	-9.30008
▁connect	-9.3027
X	-9.3038
▁if	-9.30525
▁sa	-9.30575
▁Da	-9.30582
▁Not	-9.30598
ship	-9.30612
wel	-9.30622
les	-9.30732
ll	-9.30766
▁Centr	-9.30929
▁Fa	-9.30952
▁1995	-9.31143
riche	-9.31208
▁streets	-9.31517
▁formed	-9.31583
▁Go	-9.32017
▁intend	-9.32096
▁sur	-9.32273
')	-9.3236
▁Bar	-9.32458
▁runn	-9.32629
ille	-9.32733
▁round	-9.32883
▁plastics	-9.33196
tien	-9.33363
ower	-9.33367
ux	-9.33505
com	-9.33523
▁tr	-9.34219
▁Julie	-9.34262
▁Im	-9.34354
▁Pau	-9.34411
j	-9.34601
▁exhibits	-9.34937
sh	-9.35266
▁discover	-9.35307
▁situ	-9.35398
ma	-9.35632
H	-9.35803
▁Ab	-9.35872
▁Su	-9.35907
▁hous	-9.35953
R	-9.3601
ina	-9.36091
via	-9.36228
▁Founde	-9.36609
▁di	-9.36998
ez	-9.37391
▁continu	-9.37818
▁designs	-9.37951
ik	-9.37996
▁vi	-9.38289
ó	-9.38413
bas	-9.38562
Z	-9.38702
▁groups	-9.38758
self	-9.38776
▁assist	-9.38934
Space	-9.39016
ternal	-9.39034
specific	-9.39119
▁document	-9.3914
ART	-9.39265
▁parts	-9.39267
00	-9.39367
▁organizations	-9.39421
▁Dan	-9.39426
▁language	-9.39478
▁Sou	-9.39485
▁Del	-9.39583
▁invitation	-9.39649
▁debate	-9.39699
▁pass	-9.39702
▁magazine	-9.39721
▁relation	-9.39803
wa	-9.39804
▁proposal	-9.39836
▁respect	-9.39892
▁find	-9.39968
ud	-9.40065
most	-9.40274
une	-9.40316
asse	-9.40648
ou	-9.40658
▁80	-9.4079
▁know	-9.4118
vier	-9.41231
▁200	-9.41243
▁grow	-9.41283
res	-9.41344
<	-9.41518
KABINET	-9.41518
▁August	-9.41518
▁fashion	-9.41518
▁micro	-9.41518
▁reputation	-9.41518
▁Tilde	-9.41518
▁Voltaire	-9.41518
▁accompany	-9.41518
]	-9.41518
▁Aarau	-9.41518
▁physi	-9.41518
▁club	-9.41518
▁grew	-9.41518
▁However	-9.41519
▁shift	-9.41519
▁village	-9.41519
▁accept	-9.4152
▁printmaking	-9.4152
▁awareness	-9.41521
▁Marwan	-9.41521
▁beautiful	-9.41522
▁alongside	-9.41523
▁electronic	-9.41523
▁Robert	-9.41525
▁human	-9.41527
▁never	-9.41528
▁1972	-9.41531
▁Charlie	-9.41532
aries	-9.41535
▁extension	-9.41535
▁choice	-9.41535
▁Vault	-9.41536
▁1950	-9.41538
▁equipment	-9.41541
▁science	-9.41542
▁quality	-9.41547
▁involvement	-9.41549
▁power	-9.41558
▁Programme	-9.41562
▁June	-9.41566
▁night	-9.41571
▁2003	-9.41571
▁him	-9.41572
▁Region	-9.41578
▁opportunities	-9.41581
▁size	-9.41606
▁Institute	-9.41628
▁move	-9.41638
▁Collection	-9.41644
▁visitor	-9.41649
▁increasing	-9.41682
▁Xa	-9.41715
▁Some	-9.4172
▁English	-9.41765
▁Design	-9.41766
▁convention	-9.41773
▁Barb	-9.41776
▁Trip	-9.41787
▁1973	-9.41794
▁mov	-9.41813
▁late	-9.41824
▁accompanied	-9.41865
▁Anne	-9.41893
▁Willi	-9.41915
▁operation	-9.42011
▁am	-9.42034
▁founding	-9.42102
▁But	-9.42176
▁perspectives	-9.42211
▁founder	-9.42218
▁larger	-9.4224
▁front	-9.42286
of	-9.42348
▁seek	-9.42402
▁final	-9.42418
▁extend	-9.42424
▁law	-9.42463
▁Hall	-9.42471
▁dance	-9.42494
bru	-9.42539
▁ambitio	-9.42662
▁workers	-9.42771
▁inside	-9.42772
▁hand	-9.42798
ă	-9.4283
▁search	-9.42967
▁thank	-9.42991
▁linked	-9.43002
▁proposes	-9.43034
▁closed	-9.43308
▁LA	-9.43422
▁informal	-9.43464
▁Hug	-9.43578
▁visit	-9.43582
▁Co	-9.43632
▁Dam	-9.43715
▁Ne	-9.43839
▁careers	-9.44131
▁type	-9.44236
▁Matt	-9.44501
▁light	-9.44612
▁mission	-9.44718
ile	-9.44821
ago	-9.45171
J	-9.45362
▁Swi	-9.45363
ger	-9.45384
▁Or	-9.45479
▁launch	-9.45816
▁attract	-9.45968
▁less	-9.46007
even	-9.46467
Ou	-9.46477
▁locations	-9.46481
▁Residenc	-9.4663
▁o	-9.46683
▁ground	-9.46847
erson	-9.47209
▁mix	-9.4726
▁Han	-9.47494
▁ba	-9.47502
ttle	-9.47839
▁interests	-9.47872
▁projection	-9.47886
azi	-9.48058
gister	-9.48292
mi	-9.48431
rega	-9.4871
oth	-9.48711
▁lo	-9.48792
▁AC	-9.49547
▁Ana	-9.49578
glas	-9.49798
".	-9.49985
▁popula	-9.50031
▁discu	-9.50135
ta	-9.50323
▁scenes	-9.51302
▁Non	-9.51371
▁Rect	-9.51753
ions	-9.51813
▁Ch	-9.52017
aud	-9.52054
tt	-9.52101
ey	-9.52223
Vincent	-9.52376
▁artistes	-9.52398
▁Pap	-9.52455
ench	-9.52459
▁sh	-9.52513
ü	-9.5261
▁1989	-9.52924
▁Bu	-9.53055
▁Pi	-9.53136
▁Br	-9.53161
ese	-9.53312
▁Sch	-9.53415
tal	-9.5343
our	-9.53452
stands	-9.53502
che	-9.53955
ri	-9.54175
Pol	-9.54698
▁par	-9.54916
▁sites	-9.55021
ru	-9.55059
one	-9.55419
té	-9.55425
ow	-9.55478
v	-9.55731
commercial	-9.55768
We	-9.55818
ner	-9.55908
▁propose	-9.55926
▁Ko	-9.56095
ped	-9.56197
▁initiate	-9.56231
no	-9.56263
▁Inter	-9.56324
77	-9.56415
ick	-9.56487
▁toward	-9.56575
▁discussion	-9.56586
IDE	-9.56836
etropole	-9.56927
▁associat	-9.57088
▁appreciat	-9.57159
▁objective	-9.57163
▁relocat	-9.57167
ba	-9.57252
ish	-9.57386
ode	-9.5753
▁draw	-9.57571
wards	-9.57912
▁enabl	-9.57949
▁sign	-9.58061
▁perform	-9.5807
▁realize	-9.58097
▁define	-9.58112
Ü	-9.58185
▁Brazil	-9.58185
▁Glasgow	-9.58185
▁Lecouturier	-9.58185
▁Mothership	-9.58185
▁Singapore	-9.58185
▁Suolo	-9.58185
▁anniversary	-9.58185
▁attempt	-9.58185
▁challenging	-9.58185
▁confirmed	-9.58185
▁ephemeral	-9.58185
▁heritage	-9.58185
▁horizons	-9.58185
▁intimate	-9.58185
▁narrative	-9.58185
▁numerous	-9.58185
▁possibilities	-9.58185
▁propositions	-9.58185
▁seminars	-9.58185
▁universe	-9.58185
▁Establish	-9.58185
▁bikini	-9.58185
parallel	-9.58185
▁Hamburg	-9.58185
▁Richard	-9.58185
▁inhabitants	-9.58186
▁ecological	-9.58186
▁Marseille	-9.58187
▁Columns	-9.58187
▁Department	-9.58187
▁season	-9.58187
▁facilities	-9.58188
▁influence	-9.58188
▁behind	-9.58189
▁strong	-9.5819
▁participants	-9.58192
▁display	-9.58192
▁successful	-9.58193
▁technology	-9.58193
▁status	-9.58193
▁responsible	-9.58194
▁sometimes	-9.58196
▁cooperation	-9.58199
▁1975	-9.58199
▁policy	-9.58199
▁strategies	-9.582
▁1982	-9.58201
▁Gordon	-9.58202
▁cube	-9.58208
▁daily	-9.58209
▁continuous	-9.58212
▁along	-9.58214
▁back	-9.58215
▁Imman	-9.58217
▁demonstration	-9.58218
▁1988	-9.58232
▁feel	-9.58236
▁Creation	-9.58236
▁documentation	-9.58245
▁basis	-9.58251
▁What	-9.58254
▁2001	-9.58256
esearch	-9.58274
▁concerns	-9.58279
simil	-9.58279
▁Lewa	-9.58282
▁identity	-9.58285
▁significant	-9.5829
▁assembl	-9.58307
▁innovation	-9.58307
▁principle	-9.58323
▁Gro	-9.58339
▁1977	-9.5835
▁growth	-9.58351
▁setting	-9.58351
▁deep	-9.58353
▁Central	-9.58357
▁openness	-9.58364
▁Bel	-9.58364
▁collectors	-9.58372
▁festivals	-9.58374
verei	-9.58386
Comm	-9.58417
▁received	-9.58422
▁July	-9.58456
▁operating	-9.58458
▁Sophi	-9.58468
▁infrastructure	-9.58475
▁Trans	-9.58482
▁Mares	-9.58535
▁hope	-9.58548
▁seri	-9.5858
▁Hong	-9.58594
▁radio	-9.58621
OU	-9.58668
▁sell	-9.58688
▁partners	-9.58704
▁factor	-9.58722
▁DI	-9.58741
▁Victoria	-9.58772
▁water	-9.58804
▁done	-9.58834
▁Norm	-9.58861
traße	-9.58877
▁north	-9.58892
▁aspects	-9.58999
di	-9.59008
ave	-9.59111
▁directly	-9.59133
▁changing	-9.59141
▁Thomas	-9.59173
▁articles	-9.59327
▁guests	-9.5933
▁represent	-9.59357
▁things	-9.59362
▁lived	-9.59373
▁Today	-9.59406
▁CO	-9.59436
▁TO	-9.59446
▁given	-9.59774
▁prefer	-9.5989
▁contribution	-9.59955
wo	-9.59969
▁reference	-9.60418
PLA	-9.60544
▁kinds	-9.6063
▁get	-9.60708
▁Fe	-9.6071
▁editor	-9.60786
▁Ju	-9.60941
▁Nan	-9.60962
▁locally	-9.60966
▁source	-9.61336
▁Fau	-9.61374
tes	-9.61462
▁Dou	-9.61632
▁try	-9.6176
▁shar	-9.6178
lieu	-9.61984
▁ca	-9.61993
▁museums	-9.62222
qu	-9.62239
▁lives	-9.62239
▁Sm	-9.62265
▁featur	-9.62406
ault	-9.6249
▁friend	-9.62623
O	-9.62662
▁days	-9.62719
▁island	-9.62769
▁levels	-9.62859
ker	-9.63067
▁Nation	-9.6308
▁participati	-9.63163
▁35	-9.63325
▁questions	-9.63531
▁emerge	-9.63628
▁Mer	-9.63762
ON	-9.63794
▁Cac	-9.63992
▁Za	-9.64
est	-9.64069
▁PIN	-9.64157
ED	-9.64186
ö	-9.6427
form	-9.64507
▁title	-9.64753
your	-9.64817
▁ra	-9.64982
rt	-9.65174
aum	-9.65187
own	-9.65392
▁Ga	-9.65789
ative	-9.66043
ns	-9.66453
sis	-9.66478
ather	-9.66918
ollective	-9.67037
▁Ash	-9.67145
▁format	-9.67396
ff	-9.67431
▁Uni	-9.67466
."	-9.67697
eign	-9.67915
▁1991	-9.67959
ere	-9.68026
section	-9.68082
▁complete	-9.68134
▁Tri	-9.68202
ul	-9.68261
▁Mar	-9.68308
▁collaborat	-9.68336
▁Wil	-9.68371
▁2010.	-9.68417
ban	-9.68888
▁Ali	-9.69048
▁valu	-9.69056
▁improv	-9.69064
▁ART	-9.69189
aux	-9.69233
▁Lab	-9.69482
▁Bra	-9.69593
tended	-9.69685
.)	-9.69823
▁collect	-9.69963
▁mark	-9.70001
os	-9.70189
▁Ka	-9.70273
▁press	-9.70304
▁rang	-9.70554
isual	-9.70681
IER	-9.70769
PO	-9.70799
▁ones	-9.70832
ace	-9.70884
▁Ba	-9.70901
va	-9.70959
da	-9.71054
▁Jo	-9.71248
land	-9.71602
▁Lie	-9.71649
ely	-9.71798
keeping	-9.7186
nny	-9.71999
▁appear	-9.72199
▁Va	-9.72373
mind	-9.72649
za	-9.72892
▁Marie	-9.73016
▁feature	-9.73278
▁Fo	-9.73406
U	-9.73452
▁friends	-9.73689
view	-9.73709
▁Mac	-9.7377
▁celebrate	-9.73831
▁tw	-9.73911
light	-9.74217
▁Fi	-9.74237
▁Lu	-9.74422
itive	-9.74431
▁interact	-9.74863
▁Vi	-9.74922
ad	-9.75072
▁em	-9.75277
▁Sa	-9.75553
▁Tim	-9.75565
fore	-9.75591
Paul	-9.75605
▁conver	-9.75667
Run	-9.75705
▁Son	-9.75736
house	-9.75821
right	-9.75848
▁8	-9.76073
7	-9.76104
▁medium	-9.76145
▁found	-9.76292
▁station	-9.76325
▁catalogue	-9.76351
cc	-9.76389
▁expression	-9.76392
▁River	-9.7642
▁partnership	-9.76458
▁stage	-9.76468
▁resource	-9.76484
ized	-9.76486
▁Exhibition	-9.76494
▁conversation	-9.76547
▁connection	-9.76593
▁week	-9.76644
artistes	-9.76668
▁2021	-9.76873
▁risk	-9.77069
media	-9.77171
iche	-9.77238
undr	-9.7732
mporary	-9.77457
▁Book	-9.77497
taking	-9.77599
LA	-9.77832
▁speech	-9.77902
po	-9.7801
▁195	-9.7813
▁sustain	-9.78132
MER	-9.78139
▁equip	-9.78158
?	-9.78185
▁Antwerp	-9.78185
▁Encounters	-9.78185
▁England	-9.78185
▁Lorraine	-9.78185
▁Montpellier	-9.78185
▁PILOTENKUECHE	-9.78185
▁STUDIO	-9.78185
▁Sorbonne	-9.78185
▁Switzerland	-9.78185
▁Vienna	-9.78185
▁chapter	-9.78185
▁circulation	-9.78185
▁cracker	-9.78185
▁ecosystem	-9.78185
▁engaging	-9.78185
▁example	-9.78185
▁recherche	-9.78185
▁trajector	-9.78185
▁Dupuy	-9.78185
▁[	-9.78185
▁necessary	-9.78185
▁return	-9.78185
*	-9.78185
▁possibility	-9.78185
▁circle	-9.78185
Napoca	-9.78185
▁Stefan	-9.78185
▁charitable	-9.78185
▁Sofia	-9.78185
▁Festival	-9.78185
▁furniture	-9.78185
▁thousand	-9.78185
▁twenty	-9.78185
▁bodies	-9.78186
▁spatial	-9.78186
▁Wonder	-9.78186
▁Belleville	-9.78186
▁Domini	-9.78186
▁intellectual	-9.78186
▁ceiling	-9.78187
▁techniques	-9.78187
▁countries	-9.78187
▁concrete	-9.78187
▁reveal	-9.78187
▁solid	-9.78187
DUU	-9.78188
▁Geneva	-9.78189
▁entrance	-9.78189
örg	-9.78189
▁adventure	-9.78189
▁Biennial	-9.7819
▁staff	-9.78191
▁however	-9.78191
▁affordable	-9.78191
▁Observatory	-9.78193
▁problem	-9.78194
▁store	-9.78194
▁1985	-9.78194
▁Jeff	-9.78197
Clark	-9.78197
▁defend	-9.78197
▁territories	-9.78198
▁Eastern	-9.78198
▁answer	-9.78206
▁1978	-9.78206
▁regard	-9.78207
▁textile	-9.78208
▁Dijon	-9.78208
▁standard	-9.78209
▁enrich	-9.7821
▁Point	-9.78212
▁website	-9.78213
▁Huit	-9.78213
▁documentary	-9.78215
://	-9.78219
▁Alex	-9.78219
▁Tool	-9.7822
▁assign	-9.78228
▁Jona	-9.78228
▁worldwide	-9.78232
▁Jack	-9.78233
▁Laurent	-9.78234
ARCAC	-9.78237
▁underground	-9.78244
▁Poi	-9.78245
▁moment	-9.78247
▁Cube	-9.78261
▁least	-9.78267
▁clear	-9.78273
▁illustration	-9.78286
▁evolution	-9.78294
▁evolving	-9.783
▁Kong	-9.78322
▁1993	-9.78343
▁choos	-9.7835
erformance	-9.78352
▁raise	-9.78352
▁wishes	-9.78367
▁Culture	-9.78382
▁Current	-9.78387
▁reality	-9.78391
ETA	-9.78415
▁happenings	-9.78424
▁submissions	-9.78436
▁Commissioners	-9.78446
▁conte	-9.78448
▁imagination	-9.78451
▁primary	-9.78471
▁Chapel	-9.78484
▁essential	-9.78502
▁flip	-9.78532
▁ACAF	-9.78536
▁Théophile	-9.78539
▁double	-9.78545
▁sustainable	-9.78573
▁PAR	-9.78575
Arts	-9.78597
▁1976	-9.78641
speak	-9.78721
hip	-9.78732
▁Andrea	-9.78733
fic	-9.78734
▁prec	-9.78789
lé	-9.7879
▁Olivi	-9.78792
▁Station	-9.78802
▁volunteers	-9.78808
▁performers	-9.78833
ood	-9.78843
▁federa	-9.78865
▁Hay	-9.78873
▁stay	-9.7892
ake	-9.78997
▁land	-9.79017
just	-9.79105
▁plans	-9.79149
▁wood	-9.79151
▁Adri	-9.79155
pics	-9.79166
▁Mathi	-9.79178
oriented	-9.792
cia	-9.79283
▁pay	-9.79325
▁organise	-9.79374
▁rich	-9.79471
▁March	-9.7951
ank	-9.79553
▁Port	-9.79596
▁love	-9.79656
▁Her	-9.79699
▁Carolin	-9.7976
▁auto	-9.79779
▁Bour	-9.79787
▁Lee	-9.79855
8	-9.79881
▁away	-9.79946
▁plann	-9.79964
▁authors	-9.79968
ás	-9.79988
▁tru	-9.80081
▁intermedia	-9.80099
▁Sale	-9.80121
ied	-9.8016
▁collectives	-9.8023
▁objectives	-9.80341
temporal	-9.80346
▁class	-9.80398
▁participated	-9.80427
ible	-9.80476
▁documents	-9.8056
room	-9.80587
▁represented	-9.80596
▁coming	-9.80615
▁test	-9.80636
▁relations	-9.80776
▁v	-9.80801
▁right	-9.80873
▁specialize	-9.80891
▁nor	-9.81003
▁independently	-9.81072
rois	-9.81114
▁schools	-9.81205
▁interventions	-9.81216
anço	-9.81231
▁global	-9.81251
▁Mu	-9.81365
▁plays	-9.81398
efore	-9.81471
▁Pat	-9.81579
▁excit	-9.81622
▁situations	-9.81627
▁functions	-9.81635
▁loca	-9.81674
▁Asia	-9.81757
ha	-9.81903
▁ensure	-9.81975
▁systems	-9.81987
▁interesting	-9.82003
ography	-9.82351
ib	-9.82394
ESS	-9.82451
▁Wa	-9.82505
▁named	-9.82517
ek	-9.82592
▁celebrat	-9.82735
▁product	-9.82758
plex	-9.82814
▁cri	-9.82852
der	-9.82912
▁near	-9.83217
▁prioriti	-9.83365
▁Verh	-9.83531
▁views	-9.83689
▁une	-9.83832
▁expert	-9.83865
▁directions	-9.84056
▁Maria	-9.84148
▁Cou	-9.8423
llows	-9.84664
▁Ste	-9.84764
ot	-9.84843
21	-9.84954
▁keep	-9.8498
▁Sche	-9.85156
▁stand	-9.85181
▁n	-9.85192
col	-9.8521
▁age	-9.85366
istic	-9.85523
▁add	-9.85577
▁reflections	-9.85679
ected	-9.8571
▁Rein	-9.85896
his	-9.8597
sistance	-9.85985
▁individuals	-9.86171
discovered	-9.86326
▁primar	-9.86506
▁evolve	-9.86755
▁Ha	-9.86862
naud	-9.87404
bility	-9.87522
▁conduct	-9.87556
▁25	-9.87675
▁Summ	-9.87745
bb	-9.87895
stein	-9.87953
mp	-9.88596
▁15	-9.88659
rie	-9.88788
ill	-9.88878
▁programmes	-9.89008
ndate	-9.8921
▁Val	-9.89386
▁ver	-9.89436
tic	-9.89443
▁del	-9.89445
▁serv	-9.89534
▁creations	-9.89649
▁describe	-9.89721
Thi	-9.89859
mes	-9.9002
▁fo	-9.90386
▁gen	-9.90392
erie	-9.90528
bora	-9.90533
▁Ly	-9.90768
▁son	-9.90792
▁Eri	-9.90996
hat	-9.91046
▁financ	-9.91284
1989)	-9.91288
nternational	-9.91569
hi	-9.91653
ency	-9.91665
inc	-9.91747
▁town	-9.91822
ternational	-9.92011
▁cultures	-9.92064
ony	-9.92137
thus	-9.92156
▁Fre	-9.92317
len	-9.92319
▁conduc	-9.9233
▁ar	-9.92554
AS	-9.92569
Co	-9.92655
li	-9.92678
ci	-9.92836
▁collections	-9.92933
unse	-9.93077
lack	-9.93182
▁Mi	-9.93192
ins	-9.93192
▁Loo	-9.93295
▁Un	-9.93624
alerie	-9.93635
determin	-9.93705
eu	-9.93748
ah	-9.9412
▁im	-9.9431
ual	-9.94438
work	-9.94501
uld	-9.94565
000	-9.94577
ev	-9.94579
ving	-9.94624
side	-9.94635
Ra	-9.94989
▁Ke	-9.94993
if	-9.952
ée	-9.9548
▁Collecti	-9.95698
MA	-9.95947
ors	-9.96026
lè	-9.9621
▁Si	-9.96257
ric	-9.96519
eat	-9.97555
ș	-9.97635
▁designe	-9.97717
ultural	-9.97789
ny	-9.98134
oard	-9.98246
▁Spa	-9.98384
▁Medi	-9.98387
exposition	-9.98412
LE	-9.98444
▁imagin	-9.98594
residence	-9.98665
bell	-9.99346
▁Ve	-9.99645
vec	-9.99648
▁1987	-9.99693
▁realiz	-9.99757
tive	-9.99772
▁preserve	-9.99802
bad	-9.99881
gallery	-10.0002
don	-10.0003
production	-10.0011
IS	-10.0015
ious	-10.0018
wide	-10.0035
▁complet	-10.0039
lab	-10.0045
Since	-10.0046
Denis	-10.006
political	-10.0065
dditional	-10.0068
▁eas	-10.0069
Atelier	-10.0069
▁sta	-10.008
▁Stra	-10.0081
tre	-10.0106
▁neighborhood	-10.011
3)	-10.0112
▁key	-10.0125
ism	-10.0135
▁window	-10.0135
▁author	-10.0136
▁device	-10.0138
▁au	-10.0141
▁guest	-10.0142
▁2017)	-10.0142
▁article	-10.0143
▁interaction	-10.0145
NS	-10.015
▁Je	-10.0162
▁writer	-10.0163
▁student	-10.0177
ands	-10.0192
▁fair	-10.0196
▁ATE	-10.0199
iddle	-10.0211
▁occup	-10.0219
ory	-10.022
,000	-10.0221
▁guide	-10.0222
ire	-10.023
bi	-10.0244
▁border	-10.0246
▁Lar	-10.0259
▁Chris	-10.0263
ons	-10.0269
ell	-10.0289
_	-10.0289
cato	-10.0293
▁Col	-10.0295
▁Commission	-10.0299
vision	-10.0305
▁wish	-10.0306
▁distinct	-10.0314
>	-10.0318
▁Egypt	-10.0318
Coordinator	-10.0318
Rinomina	-10.0318
bologna	-10.0318
corrales	-10.0318
cultivate	-10.0318
▁(1969-1970)	-10.0318
▁Aurélie	-10.0318
▁Battaini	-10.0318
▁Beijing	-10.0318
▁Budapest	-10.0318
▁Bulgaria	-10.0318
▁December	-10.0318
▁Grimmuseum	-10.0318
▁Imperial	-10.0318
▁Kispál	-10.0318
▁Kreuzberg	-10.0318
▁Limoges	-10.0318
▁Salzburg	-10.0318
▁Tilburg	-10.0318
▁Timișoara	-10.0318
▁World	-10.0318
▁abandoned	-10.0318
▁agreement	-10.0318
▁atmosphere	-10.0318
▁husband	-10.0318
▁industry	-10.0318
▁interpret	-10.0318
▁lithography	-10.0318
▁motivat	-10.0318
▁neighbourhood	-10.0318
▁quickly	-10.0318
▁studies	-10.0318
▁travail	-10.0318
▁university	-10.0318
ä	-10.0318
▁Bucharest	-10.0318
▁Circulaire	-10.0318
▁claim	-10.0318
▁mutual	-10.0318
▁skills	-10.0318
▁spontaneous	-10.0318
Diagonal	-10.0318
▁Japan	-10.0318
▁divide	-10.0318
▁pilot	-10.0318
estampe	-10.0318
▁account	-10.0318
▁crafts	-10.0318
▁fragil	-10.0318
▁Network	-10.0319
▁elements	-10.0319
▁adapt	-10.0319
▁detail	-10.0319
RDV	-10.0319
▁rapid	-10.0319
▁impact	-10.0319
▁Jerem	-10.0319
ordinary	-10.0319
▁1979	-10.0319
▁Albania	-10.0319
▁Magma	-10.0319
▁Peterborough	-10.0319
Comun	-10.0319
uzina	-10.0319
▁1984	-10.0319
▁rhythm	-10.0319
▁women	-10.0319
▁characteristic	-10.0319
▁Rém	-10.0319
▁destination	-10.0319
▁Müller	-10.0319
▁Internet	-10.0319
▁safe	-10.0319
▁BOA	-10.0319
▁submit	-10.0319
▁outdoor	-10.032
▁San	-10.032
▁demand	-10.032
▁Coast	-10.032
▁country	-10.032
▁inherit	-10.032
▁vault	-10.032
▁passage	-10.032
▁galerie	-10.032
▁technologies	-10.032
▁transition	-10.032
▁advocate	-10.0321
▁Metz	-10.0321
▁Social	-10.0322
▁2022	-10.0322
▁63	-10.0322
▁picture	-10.0322
▁Avenue	-10.0323
▁Auto	-10.0323
RIA	-10.0323
▁everyone	-10.0323
ology	-10.0323
▁bridge	-10.0323
OUR	-10.0323
▁Beaux	-10.0324
▁création	-10.0324
▁Hill	-10.0324
▁story	-10.0324
▁peripheral	-10.0325
▁variable	-10.0325
▁surface	-10.0325
▁affect	-10.0326
▁identified	-10.0326
▁oldest	-10.0327
▁interven	-10.0327
▁fift	-10.0327
▁privileged	-10.0327
▁14	-10.0328
ère	-10.0329
▁engagement	-10.033
▁teaching	-10.033
▁vitrin	-10.033
▁again	-10.0331
▁manifestation	-10.0332
▁renewed	-10.0332
▁Berger	-10.0333
▁third	-10.0333
wise	-10.0334
▁Ister	-10.0334
▁vocation	-10.0335
▁Ze	-10.0335
▁René	-10.0335
▁nine	-10.0335
▁eight	-10.0336
▁China	-10.0339
▁1974	-10.034
▁progressive	-10.0342
▁mid	-10.0343
▁SPACE	-10.0345
▁Italy	-10.0345
Interest	-10.0345
▁Up	-10.0346
▁analysi	-10.0346
▁rare	-10.0347
▁Athens	-10.0349
▁States	-10.0351
▁showroom	-10.0354
▁Hungary	-10.0354
▁enter	-10.0355
▁1952	-10.0357
▁recognized	-10.0358
▁believe	-10.036
▁Wall	-10.0361
▁incorporated	-10.0362
▁Philip	-10.0363
▁roots	-10.0364
▁definition	-10.0364
▁Africa	-10.0364
▁Stéphan	-10.0364
▁Island	-10.0365
▁1994	-10.0366
▁ARC	-10.0366
▁journal	-10.0366
▁Curator	-10.0367
▁Solo	-10.0367
▁Claud	-10.0368
▁contain	-10.037
▁benefit	-10.0371
▁above	-10.0371
Overall	-10.0372
▁Black	-10.0373
▁person	-10.0376
▁North	-10.0376
▁Desp	-10.0377
▁modes	-10.0378
squit	-10.0379
▁sub	-10.0381
▁typical	-10.0382
▁management	-10.0386
▁welcoming	-10.0387
▁designer	-10.0387
fr	-10.039
▁dyes	-10.0398
▁communicate	-10.0399
▁Hungar	-10.0399
▁dimensions	-10.04
▁civilizations	-10.04
▁Bay	-10.0401
renzl	-10.0402
▁Nicole	-10.0403
▁CB	-10.0408
▁para	-10.0409
berg	-10.041
▁(2008)	-10.0415
▁Paint	-10.0415
▁Louis	-10.0417
▁Roy	-10.0422
▁Say	-10.0436
▁IF	-10.0437
▁say	-10.0439
▁First	-10.0443
▁che	-10.0445
▁box	-10.0447
▁challenges	-10.0451
▁volu	-10.0451
▁Ir	-10.0452
▁More	-10.0454
Abo	-10.0454
▁Kat	-10.0454
▁organising	-10.0455
▁readings	-10.0456
▁Ram	-10.0464
Guide	-10.0465
▁Lore	-10.0466
▁later	-10.0469
▁Ph	-10.0472
▁ever	-10.0477
▁usual	-10.048
RAT	-10.0494
her	-10.0496
▁Har	-10.0497
▁improvis	-10.05
▁windows	-10.0506
▁devices	-10.0506
vis	-10.0518
bert	-10.052
▁Gene	-10.0523
▁graduates	-10.0523
▁bala	-10.0525
▁Jenn	-10.053
cu	-10.0533
▁distribute	-10.0542
AMA	-10.0545
ations	-10.0548
▁conversations	-10.0551
▁constitut	-10.0554
▁catalogues	-10.0559
▁expressions	-10.056
▁Rivers	-10.056
are	-10.0562
▁connections	-10.0563
▁viewer	-10.0569
do	-10.0569
▁Cab	-10.0578
▁printing	-10.058
▁Nor	-10.0585
▁Denis	-10.0587
ntitled	-10.059
▁Rob	-10.06
HITE	-10.06
▁promis	-10.0603
▁even	-10.0604
▁Wo	-10.0605
▁stimulate	-10.0612
MAR	-10.0636
▁introduce	-10.0641
▁Inc	-10.0653
▁therefor	-10.0653
▁Sel	-10.0653
zing	-10.0655
▁Stu	-10.066
ern	-10.0663
▁socially	-10.0667
De	-10.0672
▁Green	-10.0675
ended	-10.0679
lines	-10.0685
mark	-10.0688
▁ses	-10.0712
▁foundations	-10.0716
▁Andre	-10.0724
▁memor	-10.0726
▁ga	-10.0739
▁Work	-10.0739
▁hold	-10.0743
▁aesthetics	-10.0751
▁foot	-10.0752
▁thoughts	-10.0765
▁Tur	-10.0767
▁ele	-10.0772
hold	-10.0778
▁9	-10.0787
▁Sad	-10.0789
▁hu	-10.0807
▁ages	-10.0813
egendary	-10.0847
▁Jud	-10.0858
▁refer	-10.087
ica	-10.0874
cher	-10.0878
▁Georgi	-10.0891
so	-10.0901
▁fr	-10.0901
tus	-10.0901
ka	-10.091
▁actions	-10.0917
TER	-10.0924
▁purposes	-10.0927
mont	-10.0934
2014	-10.0938
▁li	-10.0958
1)	-10.0958
▁emp	-10.0961
chin	-10.0963
!"	-10.0971
▁Anth	-10.0971
ss	-10.0975
▁Me	-10.098
ovement	-10.0982
▁27	-10.0985
lay	-10.0989
▁positions	-10.0996
ga	-10.0999
napoli	-10.1005
▁recepti	-10.1013
▁internal	-10.102
▁Pop	-10.1022
▁announce	-10.1036
ni	-10.1053
▁pleas	-10.1054
isson	-10.1057
ral	-10.106
▁mo	-10.1076
iel	-10.1077
▁compris	-10.111
van	-10.111
▁Sam	-10.1118
▁classic	-10.1124
iani	-10.1125
fe	-10.1173
sur	-10.1189
▁scienti	-10.1218
▁Fred	-10.1219
ster	-10.1232
▁cu	-10.1259
hr	-10.1259
cent	-10.1262
▁films	-10.1297
▁themes	-10.1299
ana	-10.1332
▁2008.	-10.1332
▁Mel	-10.1354
▁remove	-10.136
▁2015.	-10.1364
▁Star	-10.1376
im	-10.1385
▁collecti	-10.1392
▁graduate	-10.1394
▁cha	-10.1394
▁Grou	-10.1395
▁Lat	-10.14
ay	-10.1429
▁productions	-10.1436
▁Mon	-10.1437
▁capa	-10.1443
▁entr	-10.1455
vet	-10.1456
▁Tu	-10.1459
els	-10.1465
KA	-10.1467
▁techni	-10.1487
▁mus	-10.1493
▁Antoni	-10.1494
▁Mont	-10.1497
ER	-10.1512
▁Carr	-10.1527
rious	-10.1531
▁Bou	-10.1533
▁Burg	-10.1537
not	-10.1545
YA	-10.1556
▁leave	-10.1571
gm	-10.1576
▁lab	-10.1579
▁coordinate	-10.1605
EV	-10.1621
▁Eva	-10.1638
▁Espac	-10.1652
ery	-10.1657
▁table	-10.1658
▁inclusiv	-10.1662
ult	-10.1663
shed	-10.1665
▁Wh	-10.1688
supported	-10.1689
same	-10.1689
és	-10.1702
ize	-10.1709
volving	-10.1713
▁Will	-10.1718
▁Ni	-10.1732
▁pre	-10.176
zen	-10.1774
lf	-10.1778
▁curate	-10.1787
▁Creat	-10.1797
▁stimulat	-10.1803
▁collaborate	-10.1803
bourg	-10.1834
▁va	-10.1837
AV	-10.1842
▁Arpri	-10.1848
ENT	-10.1848
▁Sk	-10.1858
▁initial	-10.186
VA	-10.1861
sures	-10.1872
▁Sand	-10.1874
yard	-10.1879
▁CA	-10.1882
▁seve	-10.1914
lan	-10.1919
▁Don	-10.1924
▁Ky	-10.1924
▁activ	-10.1929
ő	-10.193
nica	-10.1934
sa	-10.1947
▁unit	-10.1986
2015	-10.1994
▁st	-10.2005
▁Mal	-10.2005
▁fa	-10.2022
▁app	-10.2031
▁Sh	-10.2058
▁stop	-10.2072
vin	-10.208
▁coordinat	-10.2097
active	-10.2099
je	-10.2116
▁situate	-10.2123
▁plural	-10.2135
IM	-10.2154
Mar	-10.2171
▁Lau	-10.2172
par	-10.2179
ateurs	-10.2182
▁cut	-10.2186
ught	-10.2206
uel	-10.2212
▁techn	-10.2222
▁gradua	-10.2226
▁min	-10.2231
▁Gall	-10.2237
▁calle	-10.2254
dy	-10.2275
▁Bal	-10.2277
▁plac	-10.228
▁involve	-10.2283
▁0	-10.2293
▁leav	-10.2293
urs	-10.2313
dja	-10.2338
▁Ec	-10.2345
ires	-10.2353
▁VA	-10.2363
wan	-10.2407
ft	-10.2408
▁Plat	-10.2415
▁spo	-10.2417
▁Gas	-10.2419
ho	-10.2419
ior	-10.242
▁bil	-10.2457
eau	-10.2464
ception	-10.2465
▁--	-10.2491
ure	-10.2515
lina	-10.2528
ap	-10.2541
IT	-10.2564
had	-10.259
DE	-10.2607
merging	-10.2629
▁ace	-10.263
bet	-10.2632
300	-10.2636
onia	-10.2638
▁Hel	-10.2679
2020	-10.2713
min	-10.2713
▁Initiat	-10.2723
las	-10.2725
rong	-10.2747
zo	-10.2765
over	-10.2774
artists	-10.2782
lif	-10.2793
▁Develop	-10.2794
▁Ben	-10.2826
▁logic	-10.2831
▁ask	-10.2852
rid	-10.2856
tp	-10.2859
nationally	-10.2874
way	-10.2903
▁1981	-10.2908
etic	-10.2912
lease	-10.2936
Residence	-10.2949
▁Cro	-10.2961
▁Fir	-10.3009
í	-10.3025
▁thing	-10.3046
Th	-10.3062
tr	-10.3079
ít	-10.3113
IN	-10.3116
▁Con	-10.3128
NG	-10.313
like	-10.3135
▁Bre	-10.3138
▁launche	-10.3169
curator	-10.3171
olds	-10.3194
lyn	-10.3214
▁App	-10.3226
red	-10.3238
auer	-10.3246
▁196	-10.3252
which	-10.3254
▁Whi	-10.3282
ennes	-10.3282
leaders	-10.3285
▁11	-10.3286
public	-10.3297
NC	-10.3308
2023	-10.332
plus	-10.3324
cale	-10.3341
VI	-10.335
time	-10.3352
where	-10.3353
collective	-10.3356
association	-10.3357
29	-10.336
ward	-10.3365
@	-10.3365
▁Christophe	-10.3368
castle	-10.3372
▁je	-10.3373
bel	-10.3375
With	-10.3381
face	-10.3382
2017	-10.339
though	-10.339
represented	-10.34
Today	-10.3401
Young	-10.3403
industrial	-10.3404
Jean	-10.3404
center	-10.3405
▁Berg	-10.3407
+	-10.3409
Open	-10.3411
sive	-10.3415
ray	-10.3422
person	-10.3425
100	-10.3442
▁Cas	-10.3442
▁application	-10.3443
▁atelier	-10.3443
integrated	-10.3443
▁carpet	-10.3444
▁painter	-10.3448
▁hub	-10.3458
▁Workshop	-10.346
lternative	-10.346
front	-10.3462
TEC	-10.3472
▁challenge	-10.3473
GO	-10.3474
▁aspect	-10.3477
For	-10.3489
▁commissioner	-10.3498
produced	-10.3498
.1	-10.3503
On	-10.3509
ld	-10.3534
▁perspective	-10.3539
▁screen	-10.3549
▁director	-10.3556
working	-10.3556
ega	-10.3562
▁interconnect	-10.3563
▁record	-10.3565
▁travel	-10.357
bre	-10.3574
▁learn	-10.3583
type	-10.3587
▁inform	-10.3587
▁pe	-10.3588
▁manifest	-10.3593
ivot	-10.3598
▁recognize	-10.3598
▁encourag	-10.3602
tte	-10.3605
ndicat	-10.3606
▁Catal	-10.3612
▁importan	-10.3615
▁synerg	-10.3615
▁Show	-10.3618
▁princip	-10.3622
▁German	-10.3622
▁observ	-10.3624
▁Bell	-10.3627
CP	-10.3628
▁Lou	-10.3631
▁Fiction	-10.3636
ritical	-10.3639
urpose	-10.3639
covered	-10.364
▁express	-10.3643
▁construct	-10.3646
▁belie	-10.3647
▁success	-10.365
ë	-10.3651
έ	-10.3652
α	-10.3652
λ	-10.3652
ô	-10.3652
=	-10.3652
Charlottenburg	-10.3652
Herzegovin	-10.3652
©	-10.3652
êt	-10.3652
ù	-10.3652
Ő	-10.3652
Ű	-10.3652
∎	-10.3652
▁019	-10.3652
▁13001	-10.3652
▁ChezKit	-10.3652
▁Chicago	-10.3652
▁Committee	-10.3652
▁Gängeviert	-10.3652
▁Jishkar	-10.3652
▁Magazine	-10.3652
▁Maloberti	-10.3652
▁Saskat	-10.3652
▁Scotland	-10.3652
▁Sibiu	-10.3652
▁Stephen	-10.3652
▁Toronto	-10.3652
▁Toulouse	-10.3652
▁Vancouver	-10.3652
▁Zébra	-10.3652
▁`	-10.3652
▁accumulat	-10.3652
▁acknowledge	-10.3652
▁bakeries	-10.3652
▁carnage	-10.3652
▁church	-10.3652
▁companies	-10.3652
▁difficult	-10.3652
▁diversify	-10.3652
▁emancipat	-10.3652
▁enthusias	-10.3652
▁fanzine	-10.3652
▁kitchen	-10.3652
▁manufactur	-10.3652
▁mezzanine	-10.3652
▁politics	-10.3652
▁proposing	-10.3652
▁schedule	-10.3652
▁storage	-10.3652
Giulia	-10.3652
▁Further	-10.3652
▁Number	-10.3652
▁différent	-10.3652
▁identify	-10.3652
▁instigat	-10.3652
▁0302	-10.3652
▁Mamelle	-10.3652
▁engineer	-10.3652
▁«	-10.3652
▁Drawing	-10.3652
▁Present	-10.3652
▁Tirana	-10.3652
▁abstract	-10.3652
▁budget	-10.3652
▁business	-10.3652
▁Bosnia	-10.3652
▁Limbes	-10.3652
▁Nikola	-10.3652
▁artificial	-10.3652
▁declar	-10.3652
▁fresco	-10.3652
▁proximity	-10.3652
▁strength	-10.3652
▁symposi	-10.3652
bilities	-10.3652
▁STANDARDS	-10.3652
▁Scott	-10.3652
▁concentrate	-10.3652
▁logistic	-10.3652
▁television	-10.3652
▁endeavours	-10.3652
▁District	-10.3652
▁Artcite	-10.3652
▁animals	-10.3652
▁departure	-10.3652
▁Maralt	-10.3652
▁felt	-10.3652
▁Marioni	-10.3652
▁heterogen	-10.3652
▁belong	-10.3652
▁idealistic	-10.3652
▁Garden	-10.3652
▁McCa	-10.3652
▁achieve	-10.3652
▁incubati	-10.3652
▁lucrati	-10.3652
▁punk	-10.3652
▁essay	-10.3652
▁critique	-10.3652
▁recip	-10.3652
▁Material	-10.3652
▁Tunis	-10.3652
▁High	-10.3652
▁encompass	-10.3652
02>	-10.3652
▁Urban	-10.3652
▁hospital	-10.3652
creator	-10.3652
▁Becker	-10.3652
▁fiction	-10.3652
▁Pedro	-10.3652
▁formula	-10.3652
▁Seoul	-10.3653
Function	-10.3653
▁sector	-10.3653
▁CONTE	-10.3653
▁scope	-10.3653
▁Alexandria	-10.3653
▁restrict	-10.3653
▁Francisco	-10.3653
▁Shoes	-10.3653
▁Editions	-10.3653
áll	-10.3653
▁reinvent	-10.3653
▁repair	-10.3653
▁Enterpr	-10.3653
▁division	-10.3653
Article	-10.3653
▁unknown	-10.3653
▁adhesion	-10.3654
▁bookstore	-10.3654
▁MOCA	-10.3654
▁Theatre	-10.3654
▁suitable	-10.3654
▁Borgo	-10.3654
▁dream	-10.3654
▁rehabilitate	-10.3654
▁1971	-10.3654
▁MAG	-10.3654
▁criteri	-10.3654
▁Miller	-10.3654
▁Brook	-10.3654
▁faith	-10.3654
▁factories	-10.3654
▁province	-10.3655
▁evenings	-10.3655
▁extensive	-10.3655
▁children	-10.3655
▁height	-10.3655
▁Shop	-10.3655
▁roof	-10.3655
▁Youth	-10.3656
AIR	-10.3656
▁Life	-10.3656
▁walk	-10.3656
▁Gail	-10.3656
▁data	-10.3656
▁meals	-10.3656
▁civil	-10.3656
PEN	-10.3656
▁interview	-10.3656
▁money	-10.3657
intér	-10.3657
▁distribution	-10.3657
▁personalities	-10.3657
▁report	-10.3657
▁exclusi	-10.3657
▁generator	-10.3657
UD	-10.3658
▁firm	-10.3658
▁Heiss	-10.3658
▁Grace	-10.3658
▁Oct	-10.3658
▁disseminat	-10.3658
▁Acker	-10.3658
▁egy	-10.3659
▁Quin	-10.3659
▁Associate	-10.3659
▁Marcel	-10.3659
▁everyday	-10.3659
▁plants	-10.366
▁45	-10.366
▁Balak	-10.366
▁Cuba	-10.366
▁assumption	-10.3661
▁participatory	-10.3662
▁Flor	-10.3662
bach	-10.3663
▁release	-10.3663
▁posters	-10.3663
endar	-10.3663
▁Johnston	-10.3663
▁listen	-10.3663
▁catalyst	-10.3664
▁theatre	-10.3664
▁relevan	-10.3664
▁Angele	-10.3664
.”	-10.3664
▁litera	-10.3665
▁investment	-10.3665
▁Ivan	-10.3665
▁begin	-10.3666
▁Feli	-10.3666
▁Futur	-10.3666
▁priority	-10.3666
▁presence	-10.3667
▁Great	-10.3667
▁passion	-10.3668
▁Dome	-10.367
▁pursu	-10.367
minute	-10.3671
▁photograph	-10.3671
▁Print	-10.3671
▁sacred	-10.3671
▁voluntary	-10.3672
Torre	-10.3673
▁monograph	-10.3673
champ	-10.3674
▁pedagogy	-10.3674
▁PRO	-10.3675
odern	-10.3675
▁Action	-10.3675
▁Schmi	-10.3676
▁thinkers	-10.3676
secure	-10.3677
sky	-10.3677
APSU	-10.3678
▁Petra	-10.3678
▁transfer	-10.3678
▁artwork	-10.3678
▁characterize	-10.3679
▁honor	-10.3679
▁Jeanne	-10.3679
▁Joan	-10.368
Boss	-10.368
ediums	-10.3682
▁gender	-10.3682
gner	-10.3682
ient	-10.3682
▁appearance	-10.3682
wicz	-10.3683
▁brand	-10.3683
▁(2000	-10.3684
▁invisible	-10.3685
▁occupation	-10.3686
▁closure	-10.3686
▁favor	-10.3686
▁conve	-10.3687
▁duration	-10.3687
▁synergy	-10.3689
▁intell	-10.3691
▁Grand	-10.3692
▁file	-10.3692
Quar	-10.3693
▁stone	-10.3693
▁tomb	-10.3694
▁editing	-10.3694
▁producers	-10.3695
▁observation	-10.3695
▁TV	-10.3695
▁encounters	-10.3696
▁Satellites	-10.3696
▁meanings	-10.3698
▁Basti	-10.3698
▁tell	-10.3698
▁Emili	-10.3699
▁investigation	-10.3699
▁Basil	-10.3701
▁Law	-10.3701
▁depend	-10.3704
▁Daw	-10.3706
▁don	-10.3707
▁becoming	-10.3707
▁sphere	-10.3708
▁moon	-10.3709
▁certain	-10.3711
▁underst	-10.3712
▁Chin	-10.3712
▁establishment	-10.3714
▁modest	-10.3716
▁elsewhere	-10.3717
▁Treize	-10.3717
▁Capsule	-10.3717
▁Galántai	-10.3717
▁Claire	-10.3717
▁PeepSpace	-10.3717
▁pieces	-10.3717
▁reading	-10.3718
▁Chile	-10.3718
▁administration	-10.3719
▁label	-10.3721
lick	-10.3722
▁activists	-10.3723
pers	-10.3723
▁Daniel	-10.3723
▁energy	-10.3723
▁flood	-10.3724
▁renamed	-10.3725
▁deliver	-10.3726
2024	-10.3727
▁talent	-10.3728
▁UK	-10.373
▁WO	-10.373
Fluxus	-10.3731
▁Board	-10.3738
▁Member	-10.3739
▁Gra	-10.3739
▁Freder	-10.3739
▁Maine	-10.374
▁Architectur	-10.3741
▁relie	-10.3742
Mare	-10.3742
▁gain	-10.3742
46	-10.3743
▁II	-10.3743
▁interconnected	-10.3743
▁discovery	-10.3744
▁boat	-10.3745
▁break	-10.3746
▁Ur	-10.3747
▁edge	-10.375
defin	-10.3751
▁occupy	-10.3758
▁occurre	-10.3758
ania	-10.376
▁photographer	-10.3761
▁functional	-10.3765
▁Bonne	-10.3765
▁eye	-10.3765
▁Painting	-10.3769
▁circuits	-10.377
▁decades	-10.3771
▁instruments	-10.3771
▁recording	-10.3771
bog	-10.3772
▁Gal	-10.3772
▁metal	-10.3774
NDER	-10.3774
▁Cyr	-10.3776
▁simpl	-10.3777
▁either	-10.3777
tel	-10.3777
▁INTER	-10.3779
▁users	-10.3782
▁Day	-10.3782
artiste	-10.3782
edric	-10.3783
ajar	-10.3787
▁venture	-10.3791
rich	-10.3802
illes	-10.3805
▁qui	-10.3805
atic	-10.3807
▁appropriat	-10.3809
▁ceramic	-10.381
▁Nass	-10.3811
▁Toma	-10.3822
▁Pra	-10.3823
▁Flutgraben	-10.3824
eside	-10.3825
▁Stars	-10.3825
▁limits	-10.3826
▁fellowship	-10.3826
▁broade	-10.3827
▁provocati	-10.3833
▁expos	-10.3834
▁documenting	-10.3835
▁Yo	-10.3835
therland	-10.3838
act	-10.3839
mond	-10.384
▁Kla	-10.384
▁forum	-10.3842
▁connecting	-10.3843
▁discovering	-10.3844
▁Workshops	-10.3848
▁directors	-10.3849
low	-10.3852
▁forums	-10.3852
rcea	-10.3853
▁commissioners	-10.3857
aut	-10.3857
lli	-10.3859
▁Bala	-10.3863
▁Olg	-10.3864
▁expose	-10.3872
ienne	-10.3872
▁Bach	-10.3873
tain	-10.3873
▁identit	-10.3875
▁wild	-10.3895
▁plan	-10.3896
▁espace	-10.3901
▁Cubi	-10.3911
▁Christ	-10.3911
▁entre	-10.3916
▁realized	-10.3918
my	-10.392
▁His	-10.392
▁Mark	-10.3922
▁borders	-10.3927
▁interactions	-10.3928
ishing	-10.3931
▁X	-10.394
▁Vo	-10.3945
vely	-10.3947
▁War	-10.3949
mandin	-10.3949
▁editors	-10.3953
▁Presse	-10.3953
ski	-10.3955
▁realise	-10.396
city	-10.3961
çal	-10.3962
▁Mé	-10.397
▁namely	-10.3976
▁Mir	-10.3979
▁pa	-10.398
▁ad	-10.3987
▁mely	-10.3989
ever	-10.399
▁plus	-10.3998
ril	-10.4001
▁risks	-10.4003
▁stages	-10.4005
▁Charl	-10.4006
▁Ad	-10.4009
gg	-10.4019
▁face	-10.4027
▁Lin	-10.4034
▁Gav	-10.4036
▁maintaining	-10.4038
▁animat	-10.4038
▁inventiv	-10.4045
▁Create	-10.4048
▁fairs	-10.4055
▁port	-10.406
▁Parad	-10.4076
▁sens	-10.4077
▁RE	-10.4082
▁respects	-10.4083
nced	-10.4097
▁comp	-10.4109
stett	-10.4127
▁Arun	-10.4146
▁compre	-10.4153
▁21	-10.4154
▁invitations	-10.4156
▁debates	-10.4159
▁ou	-10.4165
▁Pom	-10.4165
▁intersti	-10.4169
▁77	-10.4174
▁Mars	-10.4174
▁speci	-10.4184
ification	-10.4194
4-	-10.4195
real	-10.4199
▁Tob	-10.4217
▁ED	-10.4221
▁wines	-10.4222
▁images	-10.4228
DR	-10.4232
aker	-10.4235
Openspace	-10.4244
▁ec	-10.4271
▁publish	-10.4277
uit	-10.4286
axim	-10.4297
ension	-10.4298
tw	-10.4298
rna	-10.4299
▁sculptures	-10.4309
▁Award	-10.4309
▁frameworks	-10.4309
ont	-10.4313
iski	-10.4318
ang	-10.4318
oji	-10.432
ning	-10.4323
▁ambition	-10.4324
zz	-10.4327
▁disappear	-10.4328
tergenerational	-10.4328
▁com	-10.433
▁leads	-10.4331
▁Str	-10.4335
▁advanc	-10.4342
ural	-10.4342
▁Bi	-10.4355
▁philosoph	-10.4364
zal	-10.4366
▁emb	-10.4369
▁Per	-10.4371
▁relate	-10.4376
è	-10.438
resident	-10.4384
than	-10.439
▁Hit	-10.4404
ideo	-10.4405
▁voluntar	-10.4406
ram	-10.4408
oke	-10.4409
dri	-10.4412
▁operat	-10.4421
OS	-10.4428
ques	-10.4434
▁lega	-10.4439
fer	-10.4439
▁formation	-10.4449
▁models	-10.4457
str	-10.4462
lia	-10.4465
OT	-10.447
du	-10.4474
▁chair	-10.4475
▁Tra	-10.4478
abri	-10.4479
ding	-10.4479
ité	-10.4482
▁programm	-10.4488
▁incit	-10.4504
▁Karl	-10.4508
▁pr	-10.4512
▁shap	-10.4528
▁Simp	-10.4533
▁potentials	-10.4538
▁Ham	-10.4539
ures	-10.4545
gal	-10.4547
▁peer	-10.4549
▁Ital	-10.4552
▁po	-10.4559
ug	-10.456
▁br	-10.4563
inter	-10.4566
ung	-10.4566
▁medi	-10.4571
48	-10.4575
▁ship	-10.4579
men	-10.4583
▁showing	-10.4591
ight	-10.4597
▁limit	-10.4613
dwell	-10.4624
set	-10.4634
shop	-10.4661
▁Pr	-10.4675
▁gra	-10.4686
reative	-10.4688
olombo	-10.4689
▁Manage	-10.4691
auto	-10.4693
nza	-10.4694
ador	-10.4696
ken	-10.4704
▁Carl	-10.4741
ising	-10.4748
▁Air	-10.4751
tillo	-10.4752
▁Directors	-10.4762
etw	-10.4763
▁Gregor	-10.4769
▁sit	-10.478
▁laborato	-10.4796
▁showcase	-10.4803
▁Est	-10.4809
teral	-10.481
refore	-10.4815
▁Guill	-10.4817
▁Ala	-10.4845
net	-10.4872
stic	-10.4879
RY	-10.488
▁theater	-10.4892
▁initiat	-10.4901
▁Ron	-10.4908
▁Ken	-10.4915
▁Sév	-10.4916
▁dispos	-10.4948
▁Main	-10.4962
nown	-10.4974
▁rest	-10.4974
▁(5	-10.4974
▁Dj	-10.4976
EN	-10.4977
▁side	-10.4978
▁devi	-10.4993
▁decisi	-10.5008
▁mean	-10.5039
toire	-10.5045
Fr	-10.5045
▁Vincen	-10.5046
▁Par	-10.5061
aw	-10.5092
▁Sy	-10.5093
cycle	-10.51
58	-10.5102
▁ple	-10.5117
ep	-10.5134
▁points	-10.5136
▁commit	-10.5136
iza	-10.5147
.8	-10.5151
oud	-10.5155
next	-10.5156
▁man	-10.5159
ours	-10.5163
imed	-10.5199
▁Long	-10.5207
▁loc	-10.5235
Na	-10.5259
W	-10.529
▁ref	-10.5291
▁unt	-10.5293
uz	-10.5297
lja	-10.5301
eri	-10.5311
ational	-10.532
lett	-10.532
ES	-10.5321
ider	-10.5324
vers	-10.5347
luca	-10.5347
ement	-10.535
▁willing	-10.5351
▁accommodat	-10.5359
30	-10.5373
▁Fri	-10.5374
fo	-10.5389
▁suggest	-10.5411
normal	-10.5422
▁Rue	-10.5423
ome	-10.5439
ila	-10.5451
▁bus	-10.5455
▁replace	-10.5459
ibility	-10.5465
att	-10.5496
▁Alle	-10.5501
▁fi	-10.5502
bala	-10.5511
▁consolidate	-10.5515
▁Arg	-10.5528
▁Ame	-10.5528
ique	-10.5529
uvre	-10.5532
▁42	-10.5535
tro	-10.5537
tti	-10.5539
▁Pave	-10.5541
ms	-10.5555
RA	-10.5565
▁Labo	-10.5579
▁attend	-10.5581
ari	-10.5613
▁Cara	-10.5615
des	-10.5626
▁explor	-10.5632
▁38	-10.5634
ller	-10.5639
▁Boni	-10.5649
▁cal	-10.5655
▁Mik	-10.5657
ploy	-10.5657
▁marke	-10.5658
▁sou	-10.5676
▁Ger	-10.5724
ndre	-10.5726
dicate	-10.5745
ock	-10.5756
teen	-10.5761
▁contemporain	-10.5761
roduction	-10.5765
▁extr	-10.5777
-2012)	-10.5786
▁invit	-10.5816
AR	-10.5821
ub	-10.5832
DS	-10.5842
As	-10.585
▁2009)	-10.5862
come	-10.5863
▁2014.	-10.587
hou	-10.5873
▁Min	-10.5879
sibility	-10.5881
cial	-10.5882
▁Ghe	-10.5882
▁Curr	-10.5889
▁fee	-10.5893
▁integrat	-10.5908
formal	-10.5913
▁Cur	-10.5926
▁Henr	-10.5933
enerator	-10.5955
▁vis	-10.597
uge	-10.5974
▁Dr	-10.5987
aph	-10.5993
▁700	-10.5995
ab	-10.6027
CA	-10.6039
▁facilitat	-10.6052
▁wro	-10.6062
MPO	-10.6066
ying	-10.6094
▁Pu	-10.6095
ction	-10.61
ki	-10.6117
titled	-10.6176
euvre	-10.6182
▁differ	-10.6193
lva	-10.6211
ks	-10.6216
HI	-10.6229
▁Cent	-10.6235
▁Fl	-10.6242
mo	-10.6245
hen	-10.6253
▁gener	-10.6271
▁ob	-10.6277
▁Bern	-10.628
uf	-10.6285
metropol	-10.6309
elve	-10.6341
parable	-10.6348
▁Ber	-10.6365
TIN	-10.6368
▁converge	-10.6375
ating	-10.6379
▁Die	-10.6395
ants	-10.6407
▁manager	-10.6407
rat	-10.6417
▁Nin	-10.6421
ange	-10.6435
él	-10.6438
Ba	-10.644
elli	-10.6455
capacit	-10.6458
Fro	-10.6461
▁interacti	-10.6471
AL	-10.6472
▁emerg	-10.6478
sson	-10.6479
▁Att	-10.6481
▁mi	-10.6484
▁dig	-10.6488
iz	-10.6516
ters	-10.6518
:-	-10.6526
lot	-10.6547
OL	-10.6558
▁Gi	-10.6569
dale	-10.6572
▁EXP	-10.661
▁Rol	-10.6633
ott	-10.6634
tz	-10.6634
rior	-10.6639
▁Ver	-10.6642
arity	-10.6648
▁creati	-10.6665
ide	-10.6671
construction	-10.6674
▁cor	-10.6693
▁articulat	-10.6707
▁Apart	-10.6724
▁Ever	-10.6748
ura	-10.6758
chir	-10.6779
▁Hol	-10.6807
ol	-10.6808
▁28	-10.6808
tries	-10.6829
▁(1	-10.683
▁Ware	-10.6852
ear	-10.6857
▁Bic	-10.6865
uch	-10.6867
amm	-10.6868
ovo	-10.6872
itch	-10.6891
▁inspire	-10.6898
ncy	-10.6907
▁su	-10.6922
▁initia	-10.693
ai	-10.6935
▁mon	-10.6936
▁Ag	-10.6944
▁Boy	-10.6969
stopp	-10.6988
ARTs	-10.6998
▁Spaces	-10.7006
▁Cre	-10.7007
▁ran	-10.703
hman	-10.7037
▁Boul	-10.7069
lands	-10.7089
ami	-10.7132
lier	-10.7135
emplo	-10.7149
rio	-10.7159
sta	-10.7164
▁Sta	-10.7169
emark	-10.7173
lon	-10.7184
ver	-10.7202
ranslator	-10.722
▁imagine	-10.7249
nu	-10.7265
oni	-10.7265
▁Lor	-10.7277
Also	-10.7281
▁translat	-10.7298
dard	-10.7317
enberg	-10.7317
▁thir	-10.7341
era	-10.7353
tern	-10.7362
▁librar	-10.7366
AC	-10.7367
ional	-10.7372
ffici	-10.7379
▁integra	-10.7391
nde	-10.7395
▁fe	-10.7396
▁cast	-10.7401
▁Ros	-10.7403
per	-10.7405
aste	-10.7424
▁translate	-10.7425
Holz	-10.7432
▁Hea	-10.7434
▁Lam	-10.7437
▁Bart	-10.7485
case	-10.7486
▁Edi	-10.7491
▁Anna	-10.75
dova	-10.7503
▁embrac	-10.7503
▁Dup	-10.7507
▁enhanc	-10.7508
ind	-10.751
nders	-10.7524
eyer	-10.7526
alism	-10.7535
▁Ander	-10.7541
▁let	-10.7556
▁Kr	-10.7566
lic	-10.7572
▁Bü	-10.7578
amed	-10.7581
con	-10.7582
nded	-10.7592
arah	-10.7609
gi	-10.7622
▁operate	-10.7624
trace	-10.7624
lu	-10.7631
9	-10.7631
early	-10.7634
2015)	-10.7643
▁pu	-10.7648
ini	-10.765
UR	-10.7655
▁Py	-10.7661
▁advance	-10.7661
LI	-10.7662
▁method	-10.7668
tag	-10.7684
rman	-10.7687
eville	-10.77
▁east	-10.7702
▁Ri	-10.772
▁Riv	-10.7721
lá	-10.7727
▁70	-10.7734
lio	-10.7746
▁3,	-10.7759
ater	-10.7779
▁Gill	-10.7779
▁Chi	-10.7781
éc	-10.7797
nch	-10.78
ui	-10.7808
nia	-10.7809
▁vo	-10.7815
ext	-10.7821
ja	-10.7827
tle	-10.7854
▁Berna	-10.7879
▁compar	-10.791
TAR	-10.7921
▁critic	-10.7926
changing	-10.7937
▁renovat	-10.7941
ndependent	-10.7942
▁pat	-10.7944
den	-10.7956
ined	-10.7961
▁Fer	-10.7962
2)	-10.7979
ologies	-10.798
mmet	-10.7981
ough	-10.7981
▁Ru	-10.7994
place	-10.7997
▁Act	-10.7997
tional	-10.8012
fi	-10.8027
organis	-10.8039
▁practic	-10.8042
encies	-10.8045
▁red	-10.807
from	-10.8073
ya	-10.8073
▁unexp	-10.8076
▁Acco	-10.8083
▁invent	-10.8113
that	-10.8114
exhibitions	-10.813
▁Bru	-10.8139
TO	-10.8149
ani	-10.8152
▁distribut	-10.8153
OM	-10.8158
illian	-10.8159
ord	-10.8159
project	-10.8164
▁Es	-10.8169
uc	-10.8169
▁2011)	-10.8172
liant	-10.8178
▁Press	-10.8184
▁extra	-10.8215
▁contra	-10.8218
12	-10.8229
search	-10.8242
who	-10.8245
br	-10.8251
oc	-10.8252
EL	-10.8254
hour	-10.8261
-19	-10.8275
2016	-10.828
tial	-10.8289
▁Bor	-10.829
▁Carol	-10.8306
ded	-10.831
▁Lucie	-10.8315
▁Roman	-10.8318
chair	-10.8321
local	-10.8322
▁'	-10.8322
Lap	-10.833
social	-10.8333
more	-10.8339
establish	-10.8347
Gallery	-10.8351
Muller	-10.8356
2018	-10.8357
Kunst	-10.8361
small	-10.8362
Christ	-10.8372
official	-10.8372
DIS	-10.8377
Flutgraben	-10.838
Artist	-10.838
style	-10.838
Rue	-10.8382
fellowship	-10.8384
itation	-10.8385
Brussels	-10.8388
museum	-10.8389
General	-10.8389
▁archiv	-10.8389
First	-10.839
▁stre	-10.8391
economic	-10.8391
border	-10.8392
Hungar	-10.8392
photograph	-10.8393
free	-10.8396
▁ME	-10.8396
▁CON	-10.8397
Thomas	-10.8398
virtual	-10.8398
appropriat	-10.84
Romania	-10.84
editions	-10.8401
object	-10.8404
level	-10.8404
Marie	-10.8406
wood	-10.8406
ident	-10.8407
member	-10.8412
▁Boe	-10.8414
living	-10.8414
hierarch	-10.8417
conce	-10.8417
Alai	-10.8421
emerging	-10.8421
look	-10.8422
hens	-10.8422
▁cur	-10.8424
point	-10.8428
venture	-10.843
Site	-10.8435
usan	-10.8436
▁broadcast	-10.8443
thinking	-10.8443
collections	-10.8446
group	-10.8447
▁Hu	-10.8447
box	-10.8449
▁arra	-10.845
▁reason	-10.8451
stair	-10.8452
former	-10.8453
▁Victor	-10.8456
▁renam	-10.8456
▁mea	-10.8457
▁instrument	-10.846
▁circuit	-10.8461
exposure	-10.8464
make	-10.8464
▁decade	-10.8466
closed	-10.8467
1999	-10.8467
▁civilization	-10.8469
▁volunteer	-10.8473
later	-10.8475
▁Colle	-10.8477
ces	-10.8482
▁concert	-10.8484
▁issue	-10.8484
▁dimension	-10.8499
ida	-10.85
▁talk	-10.8502
▁partner	-10.8505
performances	-10.8507
break	-10.8508
▁dye	-10.851
▁transc	-10.8511
▁mode	-10.8515
umn	-10.8516
▁gathering	-10.8525
▁performer	-10.8525
ree	-10.853
lla	-10.8533
02	-10.8534
▁character	-10.8543
▁starte	-10.8544
decis	-10.8549
▁happen	-10.8549
ko	-10.8553
ova	-10.8558
▁intersect	-10.8563
burg	-10.8564
▁writ	-10.8568
mmer	-10.8577
▁gather	-10.858
▁item	-10.8582
xposure	-10.8584
pid	-10.8586
▁increas	-10.859
hours	-10.8591
22	-10.8593
q	-10.8599
▁accompanie	-10.8607
Stra	-10.8611
▁pedagog	-10.8615
cchi	-10.8618
▁consult	-10.8618
APS	-10.8621
▁societ	-10.8622
fairs	-10.8632
▁pop	-10.8632
gen	-10.8633
▁peripher	-10.8638
east	-10.8638
culpture	-10.8638
▁Music	-10.8639
aël	-10.8642
ask	-10.8645
xperiment	-10.8646
IAL	-10.8647
▁effect	-10.8648
prise	-10.8649
▁minim	-10.865
▁fellow	-10.8651
98	-10.8651
▁inhabit	-10.8651
expérimenta	-10.8652
/5580	-10.8652
®	-10.8652
▁művészet	-10.8652
QUE	-10.8652
VOCATI	-10.8652
unstfabrik	-10.8652
ktív	-10.8652
▁CURATOR	-10.8652
▁Degioan	-10.8652
▁Periodic	-10.8652
▁Tbilisi	-10.8652
▁Ukrain	-10.8652
▁accomplish	-10.8652
▁choreograph	-10.8652
▁substantial	-10.8652
#	-10.8652
%	-10.8652
CHANGE	-10.8652
CQE	-10.8652
GALLERY	-10.8652
IBILITY	-10.8652
Madeleine	-10.8652
Musidora	-10.8652
Rivières	-10.8652
Takeawaygallery	-10.8652
adequate	-10.8652
amizdat	-10.8652
aradoxically	-10.8652
eadquarters	-10.8652
erkamp	-10.8652
html	-10.8652
quisition	-10.8652
reflexive	-10.8652
tephinson	-10.8652
villiers	-10.8652
°	-10.8652
»	-10.8652
ção	-10.8652
ú	-10.8652
ț	-10.8652
́	-10.8652
▁(2011-2015)	-10.8652
▁ANGELES	-10.8652
▁ARTIST	-10.8652
▁Aarhus	-10.8652
▁Activities	-10.8652
▁Alphonso	-10.8652
▁Azerbaijan	-10.8652
▁Besançon	-10.8652
▁Bijl	-10.8652
▁Bologna	-10.8652
▁Botanique	-10.8652
▁Building	-10.8652
▁Clapham	-10.8652
▁Crellestr	-10.8652
▁Cuenca	-10.8652
▁Cyprus	-10.8652
▁Demetrescu	-10.8652
▁Dieuwertje	-10.8652
▁Distribution	-10.8652
▁Dokkan	-10.8652
▁Düsseldorf	-10.8652
▁Ferrari	-10.8652
▁Frankfurt	-10.8652
▁Gâteaus	-10.8652
▁Helsinki	-10.8652
▁Heritage	-10.8652
▁Išt	-10.8652
▁Kapolcs	-10.8652
▁Langebartels	-10.8652
▁Manufacture	-10.8652
▁Middelburg	-10.8652
▁Ontario	-10.8652
▁People	-10.8652
▁Poelzl	-10.8652
▁Sarajevo	-10.8652
▁Schwarz	-10.8652
▁Scotia	-10.8652
▁Scriptures	-10.8652
▁Serrano	-10.8652
▁Slovenia	-10.8652
▁Sonnenstube	-10.8652
▁TRI	-10.8652
▁Telegra	-10.8652
▁Tolila	-10.8652
▁Tremblay	-10.8652
▁Vavart	-10.8652
▁Windsor	-10.8652
▁Winnipeg	-10.8652
▁aggressive	-10.8652
▁bureaucra	-10.8652
▁categories	-10.8652
▁circular	-10.8652
▁commissaire	-10.8652
▁configuration	-10.8652
▁consciousness	-10.8652
▁demarcation	-10.8652
▁développe	-10.8652
▁execution	-10.8652
▁fonctionn	-10.8652
▁forgotten	-10.8652
▁fragment	-10.8652
▁graffiti	-10.8652
▁harvesters	-10.8652
▁imprimé	-10.8652
▁judgment	-10.8652
▁neighbor	-10.8652
▁neutral	-10.8652
▁pillars	-10.8652
▁pioneer	-10.8652
▁possibilité	-10.8652
▁purchase	-10.8652
▁reconfigur	-10.8652
▁refurbish	-10.8652
▁requirement	-10.8652
▁resolution	-10.8652
▁restaurant	-10.8652
▁sculptor	-10.8652
▁solutions	-10.8652
▁versatile	-10.8652
▁wheelchair	-10.8652
▁Ágnes	-10.8652
▁explain	-10.8652
gglomeration	-10.8652
pandemic	-10.8652
▁Accompan	-10.8652
▁Emmanuel	-10.8652
▁Erdmann	-10.8652
▁Etienne	-10.8652
▁Giustin	-10.8652
▁Lichti	-10.8652
▁MRP	-10.8652
▁Professor	-10.8652
▁Serbia	-10.8652
▁Turkey	-10.8652
▁coherently	-10.8652
▁embodie	-10.8652
▁entertainment	-10.8652
▁episodes	-10.8652
▁exercise	-10.8652
▁fantas	-10.8652
▁horizontal	-10.8652
▁praxis	-10.8652
▁quarries	-10.8652
▁spectator	-10.8652
▁tributar	-10.8652
Sellf	-10.8652
▁Craig	-10.8652
▁Perjovschi	-10.8652
▁Standards	-10.8652
▁Zealand	-10.8652
▁examine	-10.8652
▁gifts	-10.8652
▁historian	-10.8652
▁itinerant	-10.8652
▁kunstenaars	-10.8652
▁machine	-10.8652
campus	-10.8652
„	-10.8652
▁(1997-200	-10.8652
▁(1998)	-10.8652
.[	-10.8652
CTION	-10.8652
ptimis	-10.8652
solute	-10.8652
▁Bernhard	-10.8652
▁MEMB	-10.8652
▁Rodriguez	-10.8652
▁Stangl	-10.8652
▁Wegman	-10.8652
▁constrain	-10.8652
▁Canyon	-10.8652
▁EXTRA	-10.8652
▁conservat	-10.8652
▁dictat	-10.8652
tangible	-10.8652
ticular	-10.8652
▁Gün	-10.8652
▁Tirza	-10.8652
▁complicat	-10.8652
▁privé	-10.8652
▁vertical	-10.8652
▁Émil	-10.8652
Gran	-10.8652
▁(2010)	-10.8652
▁Federic	-10.8652
▁frequen	-10.8652
▁Nelson	-10.8652
▁Perfecti	-10.8652
▁gesture	-10.8652
▁phase	-10.8652
▁Cologne	-10.8652
▁speculati	-10.8652
▁szerep	-10.8652
▁Mudry	-10.8652
Donor	-10.8652
▁Toledo	-10.8652
▁courtyard	-10.8652
▁CULTUR	-10.8652
▁Versa	-10.8652
▁steel	-10.8652
▁Extended	-10.8652
▁Verlag	-10.8652
llgirls	-10.8652
▁Curcan	-10.8652
▁Broadway	-10.8652
leb	-10.8652
▁Djean	-10.8652
▁Harris	-10.8652
▁figure	-10.8652
▁utiliz	-10.8652
▁Boisi	-10.8652
▁Moonen	-10.8652
▁Zines	-10.8652
▁appoint	-10.8652
RGENC	-10.8652
▁Zurich	-10.8652
▁coincide	-10.8652
▁Bureau	-10.8652
▁frame	-10.8652
▁Villa	-10.8652
▁Arcier	-10.8652
▁browse	-10.8652
▁fresh	-10.8652
▁Ferrat	-10.8652
▁Arthur	-10.8652
▁Fraser	-10.8652
▁Koça	-10.8652
▁Doroth	-10.8652
▁criticism	-10.8652
picery	-10.8652
▁margin	-10.8652
▁Morales	-10.8652
▁Silex	-10.8652
▁residual	-10.8652
▁layout	-10.8652
WIT	-10.8652
uperhero	-10.8652
▁Constan	-10.8652
▁expérimental	-10.8652
▁Intoart	-10.8652
▁restructur	-10.8652
▁emissions	-10.8652
▁significance	-10.8652
▁Dupuis	-10.8653
▁Kulin	-10.8653
▁Elisa	-10.8653
-2001	-10.8653
▁theoretic	-10.8653
▁Cairo	-10.8653
▁Jacquel	-10.8653
▁Burcea	-10.8653
▁Tangier	-10.8653
▁Noemi	-10.8653
▁panorama	-10.8653
satisf	-10.8653
▁Johan	-10.8653
▁pleasure	-10.8653
▁symbio	-10.8653
Dresde	-10.8653
▁property	-10.8653
▁1969	-10.8653
▁Monument	-10.8653
▁sponsors	-10.8653
▁visuel	-10.8653
▁biography	-10.8653
▁perceive	-10.8653
EAR	-10.8653
▁spider	-10.8653
▁Theodor	-10.8653
▁Habit	-10.8653
sequenc	-10.8653
▁drop	-10.8653
Object	-10.8653
Extra	-10.8653
▁recover	-10.8653
▁arrangement	-10.8653
▁fondé	-10.8653
▁facility	-10.8653
▁separate	-10.8653
▁fraternity	-10.8653
▁Huber	-10.8653
▁transport	-10.8653
▁Pantin	-10.8654
▁retirement	-10.8654
akamo	-10.8654
▁(2007-201	-10.8654
▁synch	-10.8654
▁Versatil	-10.8654
▁furni	-10.8654
▁authorities	-10.8654
▁Dream	-10.8654
▁truck	-10.8654
▁Clerc	-10.8654
▁singers	-10.8654
▁novel	-10.8654
▁index	-10.8654
▁cloth	-10.8654
▁Jones	-10.8654
▁Cohen	-10.8655
SPON	-10.8655
▁draft	-10.8655
▁Lawler	-10.8655
▁Leban	-10.8655
▁Buga	-10.8655
▁filmmakers	-10.8655
▁radical	-10.8655
▁Cheng	-10.8655
▁HEAR	-10.8655
▁Noland	-10.8656
▁Chinatown	-10.8656
▁Vadr	-10.8656
▁Assist	-10.8656
straat	-10.8656
▁Arnique	-10.8656
▁Beanç	-10.8656
▁nouve	-10.8656
▁Scholarship	-10.8656
▁Gwen	-10.8656
működés	-10.8656
▁effective	-10.8656
▁Maison	-10.8656
folding	-10.8656
!!	-10.8656
▁Hila	-10.8656
▁request	-10.8657
▁FRE	-10.8657
SION	-10.8657
minist	-10.8657
brant	-10.8657
▁chaos	-10.8657
▁entity	-10.8657
rüm	-10.8657
▁helyet	-10.8657
▁Market	-10.8657
▁(1995	-10.8657
▁complement	-10.8657
▁stimuler	-10.8658
▁monographic	-10.8658
▁daring	-10.8658
▁HKA	-10.8658
▁oriental	-10.8658
▁Koop	-10.8659
▁Tatha	-10.8659
▁envision	-10.8659
▁Katz	-10.8659
▁Doris	-10.8659
▁relevance	-10.8659
▁Curie	-10.8659
▁representative	-10.8659
▁Schul	-10.866
RAC	-10.866
▁opposite	-10.866
▁exception	-10.866
ouvo	-10.866
maroc	-10.8661
UP	-10.8661
LLE	-10.8661
olival	-10.8661
possession	-10.8661
▁baza	-10.8661
▁Clare	-10.8661
▁Kirs	-10.8662
rtex	-10.8662
▁distinctive	-10.8662
▁Zur	-10.8662
▁conju	-10.8662
▁1960	-10.8662
▁Maël	-10.8662
▁counter	-10.8662
▁federation	-10.8662
▁broke	-10.8662
▁valid	-10.8663
▁authority	-10.8663
NY	-10.8663
▁56	-10.8663
Olsson	-10.8664
ectly	-10.8664
▁Nava	-10.8664
minate	-10.8664
▁Alberta	-10.8664
▁Gust	-10.8664
▁cré	-10.8665
▁cooperate	-10.8665
▁Plion	-10.8665
érie	-10.8665
▁Ellen	-10.8665
oulou	-10.8665
▁color	-10.8666
▁serigraphy	-10.8666
▁chan	-10.8666
▁reward	-10.8667
▁biennial	-10.8667
▁minimal	-10.8668
▁practically	-10.8668
▁SPACES	-10.8668
▁Shar	-10.8669
▁Bogo	-10.867
▁showcasing	-10.8671
▁container	-10.8671
▁anchor	-10.8672
▁Letter	-10.8672
▁Where	-10.8672
trum	-10.8673
▁game	-10.8673
▁revision	-10.8673
kinson	-10.8673
▁Francis	-10.8674
▁deploy	-10.8674
▁civi	-10.8674
▁mini	-10.8674
▁inherent	-10.8675
köz	-10.8675
2-4	-10.8675
▁ENS	-10.8676
▁Heiz	-10.8676
ctic	-10.8677
▁Cross	-10.8677
▁Pack	-10.8677
▁Lew	-10.8677
▁statement	-10.8678
Champ	-10.8678
▁mobile	-10.8678
▁Fictional	-10.8679
▁aware	-10.8679
mixture	-10.8679
▁Visit	-10.8679
▁Nico	-10.8679
▁erupti	-10.8679
▁Zone	-10.8679
ctures	-10.8679
▁south	-10.868
▁demo	-10.8681
▁Pores	-10.8681
▁Orion	-10.8681
▁Corn	-10.8681
meron	-10.8682
▁apparent	-10.8682
genda	-10.8682
cept	-10.8682
▁Higg	-10.8683
ACTI	-10.8683
NEW	-10.8684
▁Massim	-10.8684
nci	-10.8685
▁academic	-10.8685
+/-	-10.8685
▁pear	-10.8685
▁Tribe	-10.8685
▁Barbu	-10.8686
either	-10.8686
▁affinit	-10.8686
ITIONS	-10.8686
▁Additional	-10.8687
▁Tang	-10.8687
▁confiden	-10.8687
▁consultation	-10.8688
▁Certifi	-10.8688
iku	-10.8689
▁Therefore	-10.869
▁62	-10.8692
▁command	-10.8693
istance	-10.8693
▁mount	-10.8693
lition	-10.8693
▁beneficia	-10.8693
▁conversing	-10.8694
iling	-10.8694
▁Gold	-10.8694
▁trap	-10.8695
▁Lange	-10.8695
▁1944	-10.8696
▁disuse	-10.8697
▁Ment	-10.8697
▁Fabi	-10.8698
UG	-10.8698
▁How	-10.8698
▁Magn	-10.8698
▁Luke	-10.8699
▁guar	-10.8699
▁Zo	-10.8701
▁spend	-10.8701
perating	-10.8702
ális	-10.8703
▁anonymous	-10.8707
▁Barry	-10.8707
▁block	-10.8708
▁Seg	-10.8708
icipa	-10.8708
▁write	-10.8709
▁activate	-10.8709
FFER	-10.8709
▁imper	-10.8709
ridge	-10.871
democratic	-10.8712
▁Wave	-10.8712
▁computer	-10.8712
▁hence	-10.8714
▁Vul	-10.8715
BROAD	-10.8715
▁Kip	-10.8715
▁characteris	-10.8715
▁Atel	-10.8716
▁organizers	-10.8717
▁manifesto	-10.8718
:_	-10.8718
▁perf	-10.8718
▁Gil	-10.8719
mologi	-10.872
itin	-10.8721
reakfast	-10.8722
90	-10.8724
▁Lema	-10.8724
artos	-10.8725
▁Franc	-10.8725
▁Row	-10.8726
▁Artă	-10.8726
▁flowers	-10.8727
heter	-10.8727
▁sorts	-10.8728
-2008)	-10.8728
ene	-10.8728
▁Shir	-10.8729
▁Kater	-10.8729
▁grants	-10.873
To	-10.873
▁list	-10.873
▁voices	-10.873
▁compositions	-10.8731
▁Coalitions	-10.8731
▁governments	-10.8731
▁cell	-10.8731
▁backgrounds	-10.8731
▁teachers	-10.8732
▁animation	-10.8732
▁Balde	-10.8734
▁Beau	-10.8734
ODI	-10.8734
▁speeches	-10.8735
▁consideration	-10.8735
Mitte	-10.8735
▁philosophers	-10.8735
▁sales	-10.8736
▁Publications	-10.8736
▁contextual	-10.8736
▁launchings	-10.8736
scop	-10.8737
▁(2017	-10.8737
page	-10.8737
▁mainten	-10.8738
urface	-10.8739
▁artistique	-10.874
▁Peders	-10.874
▁absurdity	-10.8741
08	-10.8741
ALA	-10.8741
▁pursuit	-10.8742
▁Class	-10.8742
rnation	-10.8743
arious	-10.8744
▁resurgen	-10.8746
rupt	-10.8747
stead	-10.8747
▁amavada	-10.8748
Minim	-10.8748
▁edited	-10.8748
▁forge	-10.8749
▁intersection	-10.875
▁Aster	-10.8753
ersonal	-10.8754
▁Sim	-10.8755
eyelet	-10.8755
▁criticality	-10.8756
rooms	-10.8758
▁Bord	-10.8758
▁retrospect	-10.8762
▁(2012)	-10.8763
▁scientist	-10.8763
▁cap	-10.8763
▁loft	-10.8765
▁TALK	-10.8766
▁Schön	-10.8767
▁Ferrand	-10.8767
▁gold	-10.8767
▁IrmaVepLab	-10.8767
▁drawing	-10.8768
▁Alexandr	-10.8768
▁Marcabl	-10.8768
▁Natas	-10.8769
chard	-10.8769
▁Belgium	-10.8769
ín	-10.877
eg	-10.877
RES	-10.877
▁corp	-10.877
reserve	-10.8771
loom	-10.8772
▁Fabien	-10.8772
▁Jaff	-10.8773
▁educat	-10.8773
▁insights	-10.8773
▁Organization	-10.8774
▁Archive	-10.8777
▁cards	-10.8777
▁contextualis	-10.8781
▁Cap	-10.8782
▁Dev	-10.8784
tiste	-10.8784
édér	-10.8785
▁food	-10.8785
▁lasá	-10.8785
▁stable	-10.8785
rley	-10.8787
▁Pitt	-10.8788
Gino	-10.8789
guin	-10.8789
▁Nice	-10.879
▁productive	-10.879
▁traveling	-10.8794
▁fill	-10.8798
▁Seat	-10.8799
riz	-10.8799
▁Pey	-10.8801
aka	-10.8802
song	-10.8802
ority	-10.8803
borough	-10.8804
▁Lim	-10.8805
hing	-10.8807
pita	-10.8811
▁Soon	-10.8813
▁zine	-10.8813
▁Zen	-10.8813
Fond	-10.8814
direct	-10.8814
▁disintegrat	-10.8815
abric	-10.8815
▁Sal	-10.8815
ación	-10.8816
▁inc	-10.8817
ctually	-10.882
inner	-10.882
▁Communication	-10.8821
nab	-10.8823
enerated	-10.8823
Su	-10.8823
mette	-10.8824
▁suit	-10.8824
▁Roth	-10.8825
▁items	-10.8828
▁Link	-10.8832
▁Kate	-10.8834
▁Beche	-10.8835
▁realised	-10.8838
sequently	-10.8839
▁predi	-10.8842
realisation	-10.8843
▁recognise	-10.8844
▁Leon	-10.8847
▁Gamb	-10.8849
▁Patr	-10.8851
▁poets	-10.8857
▁IN	-10.8858
▁mod	-10.8859
▁proto	-10.8859
▁Keen	-10.886
ham	-10.886
▁reasons	-10.8861
▁informed	-10.8863
escu	-10.8864
▁broadcasts	-10.8865
ociety	-10.8865
tique	-10.8867
▁gatherings	-10.8867
öd	-10.8869
án	-10.887
▁Russ	-10.8871
▁neo	-10.8872
uber	-10.8874
▁Bag	-10.8874
President	-10.8879
ICC	-10.8879
10,	-10.8881
▁Roub	-10.8882
▁trial	-10.8882
residences	-10.8882
wds	-10.8883
▁workspaces	-10.8886
▁LO	-10.8886
grass	-10.8888
▁Around	-10.8888
cree	-10.8889
ué	-10.8889
▁Osc	-10.8891
▁hierarch	-10.8892
rence	-10.8896
og	-10.8896
till	-10.89
▁Fried	-10.8903
▁exce	-10.8907
loch	-10.8907
vé	-10.8918
▁Gu	-10.8919
▁union	-10.892
pb	-10.8921
TEUR	-10.8922
▁Idea	-10.8923
nes	-10.8923
endent	-10.8924
▁annually	-10.8925
eberg	-10.8927
ved	-10.8927
▁agent	-10.8927
HU	-10.893
▁colon	-10.8933
/11	-10.8933
auster	-10.8937
▁Que	-10.8937
▁bind	-10.8941
▁style	-10.895
▁sketchbook	-10.895
▁affi	-10.895
71	-10.895
▁strive	-10.895
/2	-10.8951
▁Kelle	-10.8952
▁Walk	-10.8955
chan	-10.8958
rgin	-10.896
mettr	-10.8961
▁Muller	-10.8962
ockers	-10.8967
▁Gree	-10.897
ran	-10.8972
chille	-10.8972
▁grounded	-10.8974
▁DIS	-10.8985
▁stair	-10.8988
▁30	-10.8989
haus	-10.899
▁hubs	-10.8994
▁painters	-10.9001
▁ateliers	-10.9002
▁carpets	-10.9003
▁applications	-10.9004
▁Screen	-10.9007
irie	-10.9007
▁Jaco	-10.901
ció	-10.901
▁Dara	-10.9012
▁wait	-10.9018
atus	-10.9018
▁relocation	-10.9024
▁appreciated	-10.9025
coming	-10.9035
itz	-10.9043
▁Bergman	-10.9047
▁soon	-10.9049
Flavi	-10.9056
▁Hell	-10.9057
▁emerged	-10.906
▁Topp	-10.9068
directly	-10.9069
ich	-10.9071
▁Pla	-10.9073
▁Eu	-10.9073
▁mobiliz	-10.9081
▁Promoti	-10.9083
UM	-10.9083
▁Depu	-10.9089
▁Mari	-10.9092
▁Join	-10.9094
▁Perr	-10.9094
▁Even	-10.9094
▁refus	-10.9095
▁net	-10.9095
▁receive	-10.9098
▁affiliati	-10.9098
▁workspace	-10.9101
ellowship	-10.9105
etta	-10.9116
Fa	-10.9121
▁2021)	-10.9123
pens	-10.9124
ben	-10.9128
▁Alin	-10.9128
▁Laure	-10.9129
▁Belgi	-10.9131
▁alike	-10.9134
▁castle	-10.9136
▁@	-10.9137
▁keys	-10.9137
Pa	-10.914
Middle	-10.9142
▁neighborhoods	-10.9142
▁Lion	-10.9149
44	-10.9153
▁discussed	-10.9154
▁convi	-10.9156
16	-10.9158
▁gate	-10.9159
▁Phil	-10.9159
There	-10.9163
▁29	-10.9165
assess	-10.9169
port	-10.917
▁artworks	-10.9172
UL	-10.9178
1(	-10.9183
▁date	-10.9185
ainstr	-10.9189
▁dens	-10.919
▁visits	-10.9193
ilfriede	-10.9195
▁broaden	-10.9198
gue	-10.921
▁AD	-10.9216
ény	-10.9217
oherent	-10.9218
AM	-10.9219
mid	-10.922
▁conce	-10.9225
▁2023	-10.9226
xan	-10.9226
caf	-10.923
tadt	-10.923
eous	-10.9231
▁hire	-10.9234
apes	-10.9235
itan	-10.9237
▁dealer	-10.9238
Ramb	-10.9239
itta	-10.9243
▁info	-10.9249
▁Lap	-10.9254
rates	-10.9255
nak	-10.9256
▁Lind	-10.9268
▁famili	-10.927
▁boil	-10.9272
.-	-10.9273
dependent	-10.9274
▁preparat	-10.9275
▁stations	-10.9282
xes	-10.9283
▁Harm	-10.9284
▁associations	-10.9285
▁hair	-10.9288
▁Ross	-10.9294
radio	-10.93
▁Past	-10.9301
▁Boude	-10.9301
▁Morin	-10.9303
gua	-10.9304
▁reca	-10.9304
uj	-10.9306
▁archived	-10.9311
▁consistent	-10.9313
▁Ep	-10.9317
aï	-10.9318
emberg	-10.9328
▁Lucien	-10.9342
▁ki	-10.9343
▁DE	-10.9343
▁Bett	-10.9344
▁Manue	-10.9365
UZ	-10.9369
▁proje	-10.9371
eginning	-10.9372
Pen	-10.9375
bble	-10.9375
ngar	-10.9385
jana	-10.939
stify	-10.9395
▁Les	-10.9395
▁mediums	-10.9401
nation	-10.9401
phe	-10.9404
Dick	-10.9411
▁investigate	-10.9413
▁Valle	-10.9414
/24	-10.9426
regular	-10.9433
plan	-10.944
nder	-10.9441
cha	-10.9443
esse	-10.9446
TE	-10.9459
▁Carrie	-10.9459
nn	-10.9463
ling	-10.9464
▁finds	-10.9465
▁preserv	-10.9467
char	-10.947
▁Regina	-10.9476
▁Pietr	-10.9484
61-	-10.9484
▁ID	-10.9492
▁1987.	-10.9493
oon	-10.9499
rville	-10.9504
▁econom	-10.9505
werk	-10.9507
▁matur	-10.9507
▁methodolog	-10.9509
34	-10.951
cho	-10.9514
ARTos	-10.9517
orial	-10.952
ada	-10.952
ak	-10.9525
actors	-10.9525
▁Graphis	-10.9526
60	-10.9527
tly	-10.9528
▁Mallo	-10.9528
esday	-10.9535
▁languages	-10.9556
▁magazines	-10.9556
Yann	-10.9566
▁el	-10.957
aria	-10.9588
▁speak	-10.959
▁Cole	-10.9592
▁award	-10.9593
hole	-10.9595
▁sli	-10.9603
xim	-10.9605
▁Hann	-10.9608
pository	-10.9609
vere	-10.9619
▁12	-10.962
▁Bur	-10.9631
ps	-10.9631
▁nei	-10.9649
▁coll	-10.9651
▁Cultur	-10.9654
▁Gl	-10.9656
▁Chil	-10.9662
emb	-10.9664
▁Robbi	-10.9666
ried	-10.967
aged	-10.9671
▁Coll	-10.9685
▁Cu	-10.9685
shall	-10.9686
nberger	-10.9687
rdeau	-10.9692
▁thematics	-10.9698
▁prov	-10.9702
▁Apar	-10.9705
▁Ge	-10.9706
▁tape	-10.9709
▁Ye	-10.9713
rg	-10.9716
▁Vern	-10.9723
▁Ti	-10.9726
raining	-10.9738
sen	-10.9738
▁networking	-10.9749
orrow	-10.9751
rty	-10.9766
▁questioned	-10.9771
▁Ap	-10.9773
▁Sevill	-10.9785
▁2018)	-10.9785
▁bit	-10.9795
ively	-10.9816
eï	-10.9819
erre	-10.9821
▁Bauc	-10.9825
▁Cha	-10.9827
▁exposition	-10.9829
▁allia	-10.9832
lette	-10.9838
▁Alan	-10.9843
dyl	-10.9843
uve	-10.9846
▁Due	-10.9865
▁forty	-10.9867
▁Parme	-10.988
▁poet	-10.9888
awa	-10.9888
ular	-10.9894
ility	-10.9899
dium	-10.99
PS	-10.9902
37	-10.9905
▁Pip	-10.9907
▁guid	-10.9916
ague	-10.9919
▁Cate	-10.9921
Un	-10.9925
▁icon	-10.9932
▁Char	-10.9935
open	-10.9936
▁enhance	-10.9939
▁tram	-10.9942
raw	-10.9943
▁embrace	-10.9946
asard	-10.9956
statt	-10.9957
stina	-10.997
pass	-10.9976
▁Met	-10.9981
▁Clé	-10.9985
ér	-10.9991
placed	-11
iona	-11
▁modul	-11.0003
mas	-11.0005
▁prepar	-11.0008
tér	-11.0015
▁Plan	-11.0016
mm	-11.0022
▁Beh	-11.0022
AD	-11.0024
unes	-11.0036
mu	-11.0037
oș	-11.0037
aus	-11.004
jun	-11.004
live	-11.0054
▁Mor	-11.0055
gno	-11.0059
▁Espi	-11.0063
▁libra	-11.0074
park	-11.0082
▁cr	-11.0086
▁traditions	-11.0099
▁associate	-11.0112
chola	-11.0119
financ	-11.0121
eland	-11.0136
ac	-11.0136
cting	-11.0158
EAS	-11.0163
ission	-11.0165
▁apartments	-11.017
clay	-11.0173
unce	-11.0181
erd	-11.0183
1981)	-11.0188
rin	-11.0189
orridor	-11.019
bri	-11.0194
▁Hend	-11.0215
▁Fou	-11.0235
▁incorporate	-11.024
▁Aud	-11.0246
solve	-11.025
alities	-11.026
▁accessed	-11.0261
▁Mold	-11.0268
ass	-11.028
chul	-11.0289
▁Chan	-11.0292
1.	-11.0293
▁contro	-11.0298
iner	-11.0299
▁Maci	-11.03
3-	-11.0307
fective	-11.0323
▁fl	-11.0326
dels	-11.0329
elles	-11.0333
▁react	-11.0354
▁rep	-11.0358
atur	-11.0365
sci	-11.0373
scripti	-11.0378
▁Provi	-11.0395
▁Sid	-11.0403
▁ST	-11.0404
centr	-11.041
linary	-11.0413
▁undertake	-11.0417
valu	-11.0439
IC	-11.0442
▁Ay	-11.0446
▁Emerg	-11.0448
▁Mang	-11.0451
▁Bill	-11.0455
ept	-11.0464
Mi	-11.0471
tiers	-11.0474
puis	-11.048
▁Dy	-11.0484
essions	-11.049
▁Daur	-11.0496
zer	-11.0502
▁Hen	-11.0511
▁Gen	-11.0515
neur	-11.0515
mé	-11.0528
NCE	-11.0536
WE	-11.0547
sche	-11.0548
▁Nov	-11.055
▁Brun	-11.055
▁agenc	-11.056
bcc	-11.0563
ook	-11.0566
Found	-11.0586
Axel	-11.0602
lbo	-11.0607
▁rej	-11.0617
-197	-11.0618
lower	-11.0631
▁Martine	-11.0648
▁lines	-11.0649
lite	-11.0654
ubl	-11.0654
▁Pal	-11.0654
ican	-11.0664
▁continual	-11.0667
▁Am	-11.0673
chi	-11.0681
▁Jen	-11.0685
▁Quel	-11.0687
comme	-11.0691
vie	-11.0691
80	-11.0694
finance	-11.0705
ecret	-11.0705
ele	-11.0709
▁Ol	-11.0735
▁und	-11.0747
▁reconstruct	-11.0758
▁Lev	-11.0758
▁Edit	-11.0763
▁Ald	-11.0766
▁sounds	-11.0767
▁mixe	-11.0772
exhibitors	-11.0783
nest	-11.0804
gn	-11.0812
ESAM	-11.0818
▁gree	-11.082
iger	-11.0828
gu	-11.0844
▁1992.	-11.085
▁inte	-11.0868
▁Af	-11.0873
ends	-11.0891
▁tog	-11.091
▁Pia	-11.0913
▁hono	-11.0917
▁mentors	-11.0919
AF	-11.0935
gy	-11.0936
5.	-11.0952
coupl	-11.0953
▁Christopher	-11.0959
thu	-11.0964
▁corresponden	-11.097
Anno	-11.0972
emis	-11.1
antac	-11.1007
▁da	-11.1011
formation	-11.1032
ingne	-11.1039
GA	-11.1045
▁jel	-11.1048
llusion	-11.1052
▁Er	-11.1077
▁curr	-11.1082
leg	-11.1091
lind	-11.1108
▁NO	-11.1111
6)	-11.1131
▁Libra	-11.1132
latform	-11.1134
tor	-11.1136
Cor	-11.1143
ici	-11.1146
▁Roue	-11.1148
▁TH	-11.1155
bar	-11.1156
ners	-11.1166
arily	-11.1177
prices	-11.1192
stan	-11.1199
ream	-11.1199
▁participa	-11.1206
▁retr	-11.1223
▁multipl	-11.1229
rice	-11.1232
▁187	-11.1236
xecutive	-11.1238
asically	-11.1247
▁Support	-11.1253
produce	-11.1261
gian	-11.1264
MOT	-11.1267
0)	-11.1272
PERI	-11.1281
ars	-11.129
DU	-11.1293
▁Prov	-11.1294
faces	-11.1313
dé	-11.132
hada	-11.1328
▁Luci	-11.1352
LIN	-11.1353
▁pan	-11.1359
▁Levi	-11.1361
▁Foll	-11.1364
▁trav	-11.1372
lop	-11.1373
▁Mau	-11.138
aster	-11.1381
mely	-11.1386
eliberat	-11.1389
▁impre	-11.1408
▁EX	-11.1417
▁flux	-11.142
▁prog	-11.1439
▁appro	-11.144
makers	-11.1443
▁eng	-11.1481
▁respons	-11.1495
heer	-11.1497
ain	-11.1501
▁cas	-11.1507
ws	-11.1508
▁Med	-11.1509
-2015	-11.1518
proxim	-11.1541
nitz	-11.1548
▁Châ	-11.157
▁relat	-11.1579
▁Genera	-11.1587
eke	-11.1589
▁respon	-11.1607
été	-11.1627
▁Hai	-11.1629
illo	-11.1654
▁responsi	-11.166
oine	-11.166
▁converg	-11.1665
pie	-11.167
fl	-11.1671
yone	-11.1679
NDE	-11.1688
ast	-11.169
▁bis	-11.1692
▁rés	-11.1693
▁negotiat	-11.1693
Pyr	-11.1706
▁organic	-11.1708
▁surviv	-11.1716
ue	-11.1734
▁plurali	-11.1744
▁Hy	-11.1753
▁opportun	-11.1768
pel	-11.1786
▁Vanes	-11.1789
▁Des	-11.1793
▁ch	-11.1802
lton	-11.1808
▁Communi	-11.1832
▁Pl	-11.1866
wi	-11.1877
edia	-11.1878
▁Ki	-11.1881
ether	-11.1886
▁introduc	-11.1887
rad	-11.1894
▁Carp	-11.1917
▁BL	-11.1934
▁fü	-11.1953
ched	-11.1953
▁sight	-11.1958
▁strateg	-11.1962
ssage	-11.1965
ale	-11.1996
Brit	-11.1997
arin	-11.1999
inet	-11.1999
nent	-11.2001
ink	-11.2011
si	-11.2017
▁leader	-11.2019
ffe	-11.2022
ph	-11.2029
ark	-11.205
▁obs	-11.2056
qui	-11.2085
ature	-11.2094
dia	-11.2097
▁partial	-11.21
nating	-11.2108
sia	-11.2109
appearing	-11.211
ladde	-11.211
Ho	-11.2112
▁inca	-11.2128
kele	-11.2135
▁ideal	-11.2143
▁closet	-11.2144
▁Amb	-11.2156
▁holi	-11.2162
nic	-11.2166
▁interrogat	-11.2175
lag	-11.218
table	-11.2193
kka	-11.2205
ct	-11.2207
▁Mas	-11.2213
em	-11.2234
▁Innovat	-11.2238
sus	-11.2242
▁expans	-11.2247
▁Carm	-11.2285
tő	-11.2286
lle	-11.2291
▁populate	-11.2309
nounce	-11.2315
▁Ell	-11.2321
ager	-11.2327
ching	-11.2345
jor	-11.2365
ua	-11.238
1-1995	-11.2392
▁Alb	-11.2405
▁realis	-11.2418
▁rec	-11.2429
▁FO	-11.2446
tage	-11.2452
ß	-11.2454
▁widen	-11.246
ommunity	-11.2468
rder	-11.2473
pt	-11.2476
lak	-11.2488
AGE	-11.2494
MENT	-11.2498
▁End	-11.2506
▁Rui	-11.2508
gan	-11.2513
ax	-11.2516
▁194	-11.2523
actory	-11.2534
EMENT	-11.254
vi	-11.2564
lob	-11.2592
▁describ	-11.2593
icz	-11.2597
ture	-11.2608
tney	-11.2612
▁fin	-11.2618
ár	-11.2621
ige	-11.2622
▁Te	-11.2626
▁(2008-201	-11.2633
-1995	-11.2648
roup	-11.266
acy	-11.2662
▁rou	-11.2685
▁Bus	-11.2687
▁mor	-11.2717
matic	-11.2733
amps	-11.2734
▁sec	-11.2751
▁51	-11.2754
▁vari	-11.2761
▁attenti	-11.2763
asses	-11.2785
▁Move	-11.2787
cut	-11.281
icin	-11.2816
tress	-11.2818
ping	-11.2829
▁Cos	-11.2833
nts	-11.2835
▁interrog	-11.2867
uline	-11.2877
▁acc	-11.2877
▁bi	-11.288
▁fib	-11.2884
▁Pol	-11.29
▁23	-11.2902
▁meg	-11.2903
▁Dona	-11.2904
plicit	-11.2917
▁Cri	-11.292
tu	-11.2944
saire	-11.2946
fort	-11.2954
▁Call	-11.2956
▁generat	-11.2957
▁compare	-11.2974
arco	-11.2979
ically	-11.2997
aug	-11.3034
rea	-11.3046
▁Indi	-11.3051
SE	-11.3058
cally	-11.3094
▁gla	-11.3116
reign	-11.3118
ney	-11.3134
tek	-11.3137
78	-11.3139
ics	-11.314
date	-11.3143
▁Monte	-11.3145
▁ren	-11.3149
rata	-11.3157
produc	-11.3178
▁consolidat	-11.3181
yn	-11.3195
join	-11.3198
kk	-11.3213
▁Fra	-11.3231
▁wid	-11.3245
Bri	-11.3246
demy	-11.326
▁tak	-11.3282
8)	-11.3286
1983)	-11.3292
ubourg	-11.3294
print	-11.3301
▁Rose	-11.3312
ert	-11.3314
ona	-11.3317
once	-11.3318
nstein	-11.3323
nstop	-11.3333
▁Nu	-11.3348
▁Blai	-11.336
ald	-11.3368
▁Wu	-11.337
▁survive	-11.3379
dres	-11.3385
rien	-11.3396
igger	-11.3401
otte	-11.3408
icals	-11.341
▁men	-11.3425
ection	-11.3442
El	-11.3448
▁Ya	-11.3457
▁negotiate	-11.3475
▁Cr	-11.3497
orn	-11.3527
▁(2	-11.3541
▁Chât	-11.3542
atia	-11.3543
Camil	-11.3544
1976	-11.3551
ived	-11.356
▁Cun	-11.3561
▁Lyn	-11.3562
▁mine	-11.3589
alak	-11.3593
any	-11.3611
aqui	-11.3623
▁Cla	-11.3628
ser	-11.3633
med	-11.3642
igi	-11.3663
anc	-11.3664
▁Gr	-11.3676
▁Pala	-11.3677
probabl	-11.3677
Ja	-11.3703
70	-11.3706
▁ré	-11.3723
yra	-11.3731
nish	-11.3732
▁Yan	-11.3734
▁wa	-11.3743
tá	-11.3747
als	-11.3771
▁articulate	-11.3807
▁250	-11.3818
▁regi	-11.3825
2.	-11.3827
bat	-11.388
esley	-11.3881
▁prim	-11.39
abou	-11.3902
rö	-11.391
▁Hou	-11.3911
sse	-11.3917
▁Kh	-11.3918
Tw	-11.3922
▁impr	-11.394
▁imp	-11.3955
▁3-	-11.3959
ecutive	-11.3967
▁subjectiv	-11.3998
▁Juli	-11.3999
▁Bla	-11.4006
Avi	-11.4013
▁intens	-11.402
▁Mott	-11.4021
enn	-11.4055
▁Arn	-11.4062
ame	-11.4074
zon	-11.4076
▁price	-11.4086
stry	-11.409
800	-11.4093
▁tra	-11.4104
ages	-11.4105
▁cycl	-11.4109
▁36	-11.411
▁Bak	-11.4126
ande	-11.414
▁Sher	-11.4144
imp	-11.415
▁Gou	-11.4154
mté	-11.4159
▁renovate	-11.4161
▁Gh	-11.4168
Prad	-11.4169
▁cop	-11.4171
ple	-11.4201
▁Identi	-11.4203
part	-11.4269
/7	-11.4277
▁mm	-11.4292
▁dé	-11.4312
▁correspond	-11.4325
vato	-11.4344
big	-11.4345
▁Rou	-11.4345
ples	-11.4352
unche	-11.4355
▁star	-11.4356
▁AK	-11.4367
bit	-11.4383
,"	-11.4416
ounda	-11.4427
▁Seo	-11.4434
dite	-11.4435
▁Qu	-11.4439
gne	-11.447
▁periodic	-11.449
rine	-11.451
robabl	-11.4514
ore	-11.4532
stra	-11.4533
▁trea	-11.4533
üg	-11.4541
tary	-11.4564
20	-11.457
-2021	-11.4603
onic	-11.4606
eurs	-11.4613
IF	-11.4624
FT	-11.4628
vic	-11.4631
how	-11.4669
▁nex	-11.4677
▁prepare	-11.4679
▁Vit	-11.4683
oul	-11.4713
▁1995-	-11.4715
pre	-11.472
lerie	-11.4722
IO	-11.4734
▁Bas	-11.4736
entorship	-11.4743
▁Mainl	-11.4756
▁transl	-11.4765
▁Jus	-11.4774
▁promi	-11.4782
▁Z	-11.4789
▁independ	-11.4789
cht	-11.48
entin	-11.4811
connected	-11.4818
riki	-11.482
well	-11.4844
kus	-11.4855
▁rela	-11.4857
ATE	-11.4872
UNE	-11.4876
▁Burgo	-11.4876
▁SC	-11.4879
▁leg	-11.488
cisive	-11.4882
tables	-11.4885
▁LE	-11.4894
▁Fac	-11.4909
hn	-11.4919
nner	-11.4927
gee	-11.4938
legal	-11.4949
▁37	-11.4949
▁comprise	-11.4958
get	-11.4962
cca	-11.4968
comm	-11.4979
call	-11.5001
SB	-11.5002
▁Ann	-11.5007
CI	-11.5037
▁CAM	-11.5038
gress	-11.5043
▁Ski	-11.5064
ber	-11.5064
▁integrate	-11.5068
iba	-11.507
roni	-11.5078
mina	-11.5082
SA	-11.5083
▁Wei	-11.5094
imo	-11.5094
ited	-11.51
tall	-11.5122
▁Grego	-11.515
▁Christoph	-11.5184
▁Anton	-11.5186
lected	-11.5206
▁Lei	-11.5213
Austria	-11.5214
▁Mai	-11.5218
▁incorporat	-11.5233
zat	-11.5233
mitt	-11.5241
lection	-11.5261
▁fam	-11.5272
▁Mov	-11.5278
▁US	-11.5281
mail	-11.5289
sco	-11.5291
oj	-11.5297
Founde	-11.5298
residents	-11.5298
national	-11.53
▁Participa	-11.5303
▁def	-11.5308
nounced	-11.5315
pace	-11.5321
Provid	-11.5321
▁CE	-11.5325
▁Tr	-11.5326
▁2016)	-11.5329
▁Kn	-11.5329
RT	-11.5339
7/	-11.5345
▁Galleri	-11.5348
ht	-11.5374
▁ta	-11.5375
Re	-11.5416
thro	-11.5422
poli	-11.5445
▁interdisciplina	-11.5448
hod	-11.545
▁TRA	-11.5455
pen	-11.5458
▁Mell	-11.5458
olle	-11.546
▁uni	-11.5462
▁27,	-11.5462
ea	-11.547
▁ju	-11.5483
usse	-11.5486
▁rese	-11.5492
▁(200	-11.5499
gent	-11.5503
eff	-11.5514
od	-11.5529
nagement	-11.553
▁Guille	-11.5534
▁Cat	-11.5549
IB	-11.5553
▁cul	-11.5556
veral	-11.5567
▁Wed	-11.5567
jm	-11.5579
▁PO	-11.5589
▁Kari	-11.5594
hel	-11.5609
▁economical	-11.5622
hursday	-11.563
xelle	-11.5633
"!	-11.5653
▁basic	-11.5659
cura	-11.5683
▁exhibitor	-11.5687
▁ambit	-11.5692
▁130	-11.5701
▁Sw	-11.5704
artist	-11.5713
á	-11.5718
▁res	-11.5776
launches	-11.5776
▁Meet	-11.5779
▁202	-11.579
▁lot	-11.5807
namen	-11.5818
iou	-11.5822
rk	-11.5848
esen	-11.5856
vas	-11.5866
▁Led	-11.5879
blished	-11.589
taneous	-11.5895
▁Libr	-11.5906
sek	-11.5911
fine	-11.5917
ec	-11.5921
▁modula	-11.593
▁Tradi	-11.5932
vag	-11.5935
▁Wan	-11.5951
▁Ort	-11.5954
ENC	-11.5965
DI	-11.5966
geograph	-11.5967
shan	-11.5973
▁imagina	-11.5984
▁170	-11.5987
ntervention	-11.6006
ria	-11.6018
mer	-11.6027
elia	-11.6035
hilosophy	-11.6055
pping	-11.6057
atory	-11.607
tch	-11.607
ders	-11.6075
▁adv	-11.6081
spe	-11.6083
▁situat	-11.6094
ought	-11.6097
pend	-11.6105
▁Tin	-11.6114
uerd	-11.6144
yes	-11.6148
▁Emp	-11.6159
ife	-11.6168
uba	-11.6169
▁car	-11.617
ssé	-11.6183
-1989	-11.6189
Art	-11.6193
itle	-11.6202
MAT	-11.6215
ime	-11.6222
play	-11.6234
1973	-11.6234
sion	-11.6239
RE	-11.6246
▁str	-11.6249
ssa	-11.6256
-5	-11.6268
▁notion	-11.6268
ining	-11.6274
mez	-11.6283
▁maker	-11.6283
ato	-11.6291
2016-	-11.6294
posed	-11.6307
▁gr	-11.6326
etti	-11.6336
ovis	-11.6339
▁Arc	-11.634
liza	-11.6348
xplor	-11.6351
▁mili	-11.6355
king	-11.6361
Rey	-11.6362
geno	-11.6365
DA	-11.6379
agon	-11.6383
▁DES	-11.6388
La	-11.6396
yfa	-11.6408
sional	-11.644
yl	-11.6449
▁Papa	-11.6452
eral	-11.6469
▁ide	-11.6473
rical	-11.6478
olve	-11.6487
▁Then	-11.6487
ess	-11.6492
▁bar	-11.6506
▁irre	-11.651
▁excite	-11.6516
rada	-11.6545
▁clos	-11.6557
▁prop	-11.6559
▁economi	-11.6563
sed	-11.6567
▁whol	-11.6579
lecti	-11.6612
▁leaders	-11.6619
etary	-11.6619
▁Barl	-11.6625
communications	-11.6627
bu	-11.6636
omet	-11.6647
▁spec	-11.6669
▁provi	-11.6687
▁Graphi	-11.6697
ntine	-11.6703
ssion	-11.6704
ust	-11.6705
rent	-11.671
CR	-11.6716
scal	-11.6733
gni	-11.6752
ances	-11.6755
ucas	-11.6756
eration	-11.6768
▁typ	-11.6771
▁Ei	-11.6785
▁Mob	-11.679
▁bri	-11.6799
▁Regin	-11.6824
anda	-11.6825
epository	-11.6832
llo	-11.6842
isse	-11.6844
aking	-11.6852
urges	-11.6867
▁adj	-11.6886
alloy	-11.6887
erg	-11.6889
aza	-11.6899
▁ensur	-11.6903
▁Ta	-11.6918
▁undertak	-11.6931
▁Lot	-11.6939
ébe	-11.696
mpower	-11.696
cto	-11.6974
ür	-11.6974
ents	-11.6987
10	-11.6993
roy	-11.6995
▁Sur	-11.7009
▁referenc	-11.7019
ntonio	-11.7028
▁pie	-11.7047
ois	-11.7048
und	-11.7091
making	-11.7117
Train	-11.7146
ora	-11.7156
uin	-11.7164
Editor	-11.7174
ip	-11.7177
▁investigat	-11.7181
mberg	-11.7183
▁Mil	-11.7191
radle	-11.7192
1-	-11.7201
bia	-11.7213
poet	-11.722
szt	-11.723
enous	-11.7231
opie	-11.7251
fication	-11.726
BL	-11.7282
IG	-11.7285
avour	-11.7289
nning	-11.7289
arti	-11.7323
....	-11.733
▁anci	-11.7333
legi	-11.7351
▁applie	-11.7365
mediate	-11.739
▁environmental	-11.7399
zam	-11.74
meter	-11.7414
ef	-11.7429
▁BU	-11.7429
end	-11.7432
ça	-11.7446
ntermedia	-11.7448
sma	-11.7449
▁receiv	-11.7458
ssen	-11.7472
▁Dar	-11.7483
ella	-11.7485
ylli	-11.7485
▁exten	-11.7492
rough	-11.7494
ACO	-11.7499
laboration	-11.75
uce	-11.751
ume	-11.7511
ren	-11.7526
▁Lé	-11.753
▁Cris	-11.7531
▁Koo	-11.7533
name	-11.7534
ession	-11.7551
▁Fellows	-11.7562
gic	-11.7565
ctions	-11.7566
Mitz	-11.7583
▁Faubo	-11.7587
affiliat	-11.759
ALE	-11.7615
kip	-11.7625
▁prom	-11.7636
artistic	-11.7646
▁Eca	-11.7648
25	-11.765
Promot	-11.7696
ynd	-11.7701
urie	-11.7709
▁constan	-11.7711
▁Tel	-11.774
ators	-11.7742
-195	-11.7747
this	-11.7753
PU	-11.7756
bl	-11.7772
▁Morr	-11.7779
50	-11.7805
rium	-11.782
OC	-11.7822
▁Thoma	-11.7829
schu	-11.7832
▁wil	-11.7833
▁(198	-11.7842
▁Shin	-11.7859
▁WHI	-11.7859
studio	-11.786
iving	-11.7877
pty	-11.788
iv	-11.7891
performance	-11.7891
Vli	-11.7898
tors	-11.7905
ITION	-11.7907
gl	-11.7912
TAN	-11.7915
nted	-11.7917
sov	-11.7917
UN	-11.7919
▁Wi	-11.7922
now	-11.7923
new	-11.7927
ketchbooks	-11.7927
▁Nicol	-11.7928
banne	-11.7929
AY	-11.7939
▁Jac	-11.7939
fib	-11.7946
rrow	-11.796
▁vol	-11.7963
▁cours	-11.7965
▁fun	-11.7969
dr	-11.798
Ve	-11.7981
▁scholar	-11.7987
▁orient	-11.7992
info	-11.7997
ably	-11.8
orship	-11.8006
▁desp	-11.8013
▁hy	-11.8013
▁Sande	-11.8028
▁individu	-11.8029
lm	-11.8038
state	-11.8045
BA	-11.8054
ocal	-11.8072
tski	-11.8086
ered	-11.8087
Crim	-11.8095
▁Soci	-11.8096
young	-11.8098
hol	-11.8099
first	-11.8103
Ala	-11.8119
7)	-11.8123
trin	-11.8124
▁Residen	-11.8132
friend	-11.8133
▁Guil	-11.8139
each	-11.8151
founded	-11.8154
▁Rena	-11.8155
UNDE	-11.8164
▁wit	-11.817
▁recogni	-11.8175
esthetic	-11.8182
ubsequent	-11.8188
Pala	-11.8189
Russe	-11.8194
mphasis	-11.8198
rchand	-11.8198
platform	-11.8208
▁administ	-11.821
explo	-11.8215
▁ambi	-11.8217
▁occur	-11.8222
itzi	-11.8225
▁Abil	-11.823
works	-11.8232
creative	-11.8237
2011	-11.8241
utti	-11.8242
2019	-11.8243
asso	-11.8248
▁lasaci	-11.8248
▁installat	-11.8257
SW	-11.8257
▁Ac	-11.8258
2007	-11.8261
text	-11.8268
▁striv	-11.8275
Irma	-11.8278
lmie	-11.8283
organized	-11.8283
LO	-11.8285
eramics	-11.8286
▁Bonn	-11.8286
▁inse	-11.8287
Cona	-11.8288
▁Architect	-11.8289
alternative	-11.8294
Flux	-11.8294
experimentation	-11.8296
Support	-11.8298
Bill	-11.83
meaning	-11.8301
Communication	-11.8304
Wu	-11.8305
think	-11.8306
AP	-11.8307
▁deposit	-11.8308
▁Bau	-11.831
appro	-11.8311
otsc	-11.8311
TRA	-11.8321
activity	-11.8321
interest	-11.8324
2010	-11.8324
exhibit	-11.8324
▁dec	-11.8328
2014)	-11.8329
period	-11.8329
residencies	-11.833
“	-11.833
ifies	-11.8332
stitute	-11.8332
conference	-11.8333
libera	-11.8337
2013	-11.8338
private	-11.8338
earch	-11.8342
▁Cona	-11.8342
venue	-11.8342
Laure	-11.8343
century	-11.8343
ium	-11.8343
network	-11.8343
ünn	-11.8346
▁Atten	-11.8346
Organization	-11.8346
disciplines	-11.8347
NICC	-11.835
nanci	-11.8351
New	-11.8351
Frank	-11.8353
three	-11.8353
Apart	-11.8354
Link	-11.8355
historical	-11.8355
integr	-11.8355
function	-11.8356
empl	-11.8358
▁Poll	-11.8359
France	-11.8359
months	-11.8361
IrmaVepLab	-11.8363
floor	-11.8363
visible	-11.8363
productive	-11.8363
Marcabl	-11.8363
Ferrand	-11.8363
Belgium	-11.8363
known	-11.8364
Europe	-11.8364
Schön	-11.8365
permanent	-11.8365
alyst	-11.8365
TALK	-11.8366
And	-11.8366
proposals	-11.8366
maintain	-11.8368
Alexandr	-11.8369
institution	-11.837
books	-11.837
potential	-11.8371
bsen	-11.8371
Liz	-11.8372
David	-11.8375
practitioners	-11.8375
retrospect	-11.8375
ceramic	-11.8377
gard	-11.8377
York	-11.8377
Martin	-11.8378
painting	-11.8378
materials	-11.8379
generation	-11.838
Blindside	-11.838
door	-11.8382
October	-11.8382
Artpool	-11.8382
Exhibitions	-11.8383
Desp	-11.8383
PeepSpace	-11.8383
Pierre	-11.8383
administration	-11.8384
Galántai	-11.8384
Rob	-11.8384
Capsule	-11.8384
career	-11.8384
Daniel	-11.8384
Treize	-11.8385
CO	-11.8385
Claire	-11.8385
situation	-11.8385
activists	-11.8385
elsewhere	-11.8386
Michael	-11.8387
Simon	-11.8387
charge	-11.8387
loft	-11.8387
1994	-11.8387
Center	-11.8387
Public	-11.8388
regional	-11.8388
magazine	-11.8388
perspective	-11.8389
occasion	-11.8389
learning	-11.8389
INTER	-11.839
Jud	-11.839
convention	-11.839
founder	-11.839
English	-11.8391
energy	-11.8391
white	-11.8391
Stéphan	-11.8391
Rect	-11.8391
Design	-11.8392
Théophile	-11.8392
Island	-11.8392
Africa	-11.8392
Louis	-11.8392
infrastructure	-11.8392
PIN	-11.8392
▁Feu	-11.8393
definition	-11.8394
Nicole	-11.8394
Philip	-11.8395
graduates	-11.8395
Solo	-11.8396
Claud	-11.8396
typical	-11.8396
risti	-11.8396
ACAF	-11.8396
Curator	-11.8396
accompanied	-11.8396
management	-11.8397
cosm	-11.8397
Sophi	-11.8398
roots	-11.8398
authors	-11.8398
Trans	-11.8399
TCB	-11.84
IFP	-11.84
class	-11.8401
Board	-11.8402
flip	-11.8402
writ	-11.8404
Bü	-11.8404
image	-11.8404
CT	-11.8404
ike	-11.8405
expand	-11.8405
sustainable	-11.8405
Black	-11.8406
journal	-11.8407
East	-11.8407
Station	-11.8407
director	-11.8407
certain	-11.8408
piece	-11.8411
Lab	-11.8411
ARC	-11.8411
water	-11.8412
Hit	-11.8413
ope	-11.8413
aching	-11.8413
UK	-11.8413
label	-11.8415
motion	-11.8415
esurgent	-11.8416
▁(3	-11.8417
18	-11.8417
opper	-11.8418
what	-11.8418
Michel	-11.8419
More	-11.842
xhaust	-11.8423
talent	-11.8424
double	-11.8425
Barb	-11.8425
Some	-11.8425
functional	-11.8426
36	-11.8426
essential	-11.8426
2018)	-11.8427
urban	-11.8427
north	-11.8428
food	-11.8428
bsurdity	-11.8429
mediums	-11.843
zine	-11.8432
NK	-11.8432
modern	-11.8432
Adri	-11.8433
sphere	-11.8433
alia	-11.8434
journ	-11.8436
intervention	-11.8438
Pitt	-11.844
personal	-11.844
writing	-11.8441
mavada	-11.8442
eur	-11.8443
▁Nata	-11.8446
format	-11.8448
weeks	-11.8448
ssoul	-11.845
accessib	-11.8451
Fac	-11.8452
▁Coalition	-11.8452
▁background	-11.8454
usual	-11.8457
SPACE	-11.8457
Archive	-11.8459
▁government	-11.846
▁territo	-11.8461
ality	-11.8462
Julie	-11.8462
▁composition	-11.8463
believe	-11.8465
Guill	-11.8467
▁Satellite	-11.8469
▁encounter	-11.847
▁teacher	-11.847
▁Péd	-11.847
pproaches	-11.8471
▁voice	-11.8472
Gilli	-11.8473
▁insight	-11.8475
chel	-11.8475
transmi	-11.8475
Hel	-11.8477
Dou	-11.8478
pso	-11.848
▁Adv	-11.8481
nimation	-11.8481
gallerie	-11.8481
▁festival	-11.8482
metal	-11.8484
student	-11.8484
▁grant	-11.8484
35	-11.8486
▁submission	-11.8488
arium	-11.8489
Gregor	-11.8492
training	-11.8492
sense	-11.8492
ROAD	-11.8493
purpose	-11.8494
galleries	-11.8494
▁terri	-11.8494
origin	-11.8496
▁premise	-11.8496
analysi	-11.8499
mocratic	-11.85
▁philosopher	-11.8503
▁Oli	-11.8506
200	-11.8509
closure	-11.8513
ugg	-11.8513
nonymous	-11.8513
encourag	-11.8515
Chi	-11.8516
shape	-11.8516
▁depart	-11.8516
▁ado	-11.8517
▁flower	-11.8517
▁progress	-11.8519
luxu	-11.8521
▁Il	-11.8523
▁Athen	-11.8525
head	-11.8527
velin	-11.8527
2019)	-11.8528
service	-11.8531
aust	-11.8531
ared	-11.8531
▁Mich	-11.8533
life	-11.8533
▁comput	-11.8534
Archiv	-11.8536
ká	-11.8538
Kip	-11.8538
egory	-11.8541
negotiate	-11.8541
61	-11.8542
eading	-11.8543
connection	-11.8547
▁Wit	-11.8549
chang	-11.855
onographs	-11.8551
FO	-11.8552
Continu	-11.8552
2000	-11.8552
CB	-11.8553
▁Hal	-11.8553
FF	-11.8553
contain	-11.8556
bli	-11.8557
TOP	-11.8558
four	-11.8559
initiati	-11.8559
2009)	-11.8561
▁scen	-11.8561
▁Mit	-11.8568
nomy	-11.8568
▁paint	-11.857
▁MO	-11.8571
affa	-11.8572
summer	-11.8573
▁Institut	-11.8574
▁concern	-11.8575
Tom	-11.8575
feasib	-11.8575
mount	-11.8575
▁collector	-11.8577
fast	-11.8577
▁Communicati	-11.8577
▁Publication	-11.858
94	-11.858
▁Commissioner	-11.8581
2005)	-11.8581
extens	-11.8584
▁illustrat	-11.8585
action	-11.8585
EW	-11.8587
▁plasti	-11.8587
▁debat	-11.859
▁sacr	-11.859
owing	-11.8591
Sami	-11.8592
ervice	-11.8593
▁State	-11.8593
DITION	-11.8593
printing	-11.8594
Rh	-11.8594
▁VI	-11.8596
labora	-11.8597
alks	-11.8597
lor	-11.8597
▁exhib	-11.8597
collectiv	-11.8598
cards	-11.86
evolution	-11.8601
▁privilege	-11.8601
colon	-11.8602
-199	-11.8604
▁identifie	-11.8607
tually	-11.8607
▁archi	-11.8609
▁kö	-11.861
grad	-11.8611
▁possibl	-11.8612
Hong	-11.8612
associati	-11.8612
▁catalys	-11.8612
▁bienni	-11.8613
▁serigraph	-11.8614
▁teach	-11.8616
contr	-11.8618
Mit	-11.8618
sumption	-11.8618
▁amavad	-11.862
▁qualit	-11.8621
ologi	-11.8621
▁demonstrati	-11.8621
▁Contemporar	-11.8622
actual	-11.8622
invent	-11.8623
▁revol	-11.8625
▁energ	-11.8626
unt	-11.8626
ARCH	-11.8626
▁galler	-11.8628
▁renew	-11.8628
jel	-11.8629
vious	-11.863
pieces	-11.8631
merge	-11.8632
mergen	-11.8634
NDAT	-11.8634
▁Albert	-11.8634
▁Exhibiti	-11.8635
itate	-11.8636
▁Zef	-11.8636
nozzo	-11.8636
▁advoca	-11.8636
SAL	-11.8637
raveling	-11.8637
Text	-11.8638
onference	-11.8638
andscapes	-11.8638
harle	-11.8639
ubmissions	-11.8639
▁count	-11.8639
▁autho	-11.864
▁publi	-11.864
hallenge	-11.864
▁happ	-11.8641
▁működ	-11.8641
BO	-11.8641
ystem	-11.8642
specifi	-11.8642
unit	-11.8642
habilitate	-11.8643
lutgraben	-11.8643
ulp	-11.8644
Curat	-11.8644
onceptual	-11.8644
llustration	-11.8644
▁flow	-11.8645
ichael	-11.8645
scribe	-11.8645
semble	-11.8645
▁dynami	-11.8646
▁Rhy	-11.8646
possess	-11.8646
lectronic	-11.8647
issemination	-11.8647
ncourage	-11.8647
roposals	-11.8647
nvironment	-11.8647
hotographer	-11.8647
▁govern	-11.8647
▁summ	-11.8647
enefit	-11.8647
operative	-11.8647
mmuni	-11.8647
▁afford	-11.8647
ducation	-11.8647
▁environ	-11.8648
▁except	-11.8648
posito	-11.8648
TIONS	-11.8648
▁créati	-11.8648
organizer	-11.8648
nfluence	-11.8649
pherson	-11.8649
▁Corri	-11.8649
struction	-11.8649
hildren	-11.8649
onographic	-11.8649
ncluded	-11.8649
▁ACT	-11.8649
anorama	-11.8649
acilities	-11.8649
▁alternat	-11.8649
ospital	-11.865
overnment	-11.865
ecognized	-11.865
Arch	-11.865
elationships	-11.865
onnections	-11.865
esponsible	-11.8651
igital	-11.8651
olunteer	-11.8651
▁profess	-11.8651
ARI	-11.8651
ristophe	-11.8651
stival	-11.8651
▁expéri	-11.8651
RGE	-11.8651
▁endeavo	-11.8651
ANDARDS	-11.8652
▁É	-11.8652
▁electro	-11.8652
{	-11.8652
▁Bienn	-11.8652
eautiful	-11.8652
glomerat	-11.8652
ographer	-11.8652
scape	-11.8652
▁Observ	-11.8652
saç	-11.8652
}	-11.8652
~	-11.8652
Ç	-11.8652
Î	-11.8652
×	-11.8652
ñ	-11.8652
œ	-11.8652
ű	-11.8652
▁Gianno	-11.8652
▁Gât	-11.8652
▁Scrip	-11.8652
UUU	-11.8652
Works	-11.8652
photo	-11.8652
ţ	-11.8652
Ș	-11.8652
Ț	-11.8652
▁CHA	-11.8652
▁Emma	-11.8652
▁Broad	-11.8652
▁Grimm	-11.8652
velope	-11.8652
Conf	-11.8652
raduate	-11.8653
▁commerc	-11.8653
ritual	-11.8653
iggs	-11.8653
952	-11.8653
lova	-11.8653
dcast	-11.8653
thetical	-11.8654
roperty	-11.8654
consum	-11.8654
EME	-11.8654
▁commun	-11.8654
polog	-11.8654
zai	-11.8655
cord	-11.8655
▁epis	-11.8655
Museu	-11.8655
lications	-11.8655
▁manif	-11.8655
phic	-11.8656
ialogu	-11.8656
ssump	-11.8656
Emman	-11.8656
▁Kun	-11.8656
ières	-11.8657
shka	-11.8657
▁diver	-11.8657
▁symb	-11.8658
laborate	-11.8658
▁supp	-11.8658
▁villa	-11.8658
HAR	-11.8659
ified	-11.866
ív	-11.866
RATOR	-11.866
parate	-11.866
linaire	-11.8661
ITY	-11.8662
Made	-11.8662
hard	-11.8663
▁conceive	-11.8663
ommuni	-11.8663
▁symp	-11.8663
▁whil	-11.8663
▁Dij	-11.8663
▁resour	-11.8663
BIN	-11.8664
Fri	-11.8664
spa	-11.8664
▁court	-11.8664
ritable	-11.8664
▁Presi	-11.8664
▁Roma	-11.8665
aboratory	-11.8665
fusion	-11.8666
ractice	-11.8666
compli	-11.8666
nclusiv	-11.8667
978	-11.8667
ZZ	-11.8667
burgh	-11.8667
schoo	-11.8668
turier	-11.8668
ogether	-11.8669
iscovery	-11.8669
ssenti	-11.8669
ITE	-11.867
chter	-11.867
fusa	-11.867
friends	-11.867
▁Facto	-11.8671
lober	-11.8671
vailab	-11.8671
inelli	-11.8671
annozzo	-11.8671
hrou	-11.8671
▁icono	-11.8671
▁Colum	-11.8672
ALO	-11.8672
ION	-11.8674
Ro	-11.8675
HO	-11.8675
cific	-11.8675
unders	-11.8676
▁stag	-11.8677
hand	-11.8677
Marg	-11.8678
▁super	-11.8678
oncep	-11.8678
uctu	-11.8679
erceive	-11.868
ety	-11.8681
extile	-11.8681
tradition	-11.8681
▁Victo	-11.8682
▁fratern	-11.8682
pecial	-11.8682
▁(196	-11.8684
▁destin	-11.8686
UE	-11.8686
nglis	-11.8686
▁applica	-11.8687
lmer	-11.8688
▁hetero	-11.8688
Take	-11.8688
gari	-11.8688
turi	-11.8689
named	-11.869
▁sort	-11.869
11/11	-11.8692
▁mig	-11.8693
▁jo	-11.8693
revious	-11.8693
▁cooperat	-11.8693
kini	-11.8694
May	-11.8696
▁adhes	-11.8697
hythm	-11.8698
ZE	-11.8699
chni	-11.8699
▁retire	-11.87
6,	-11.8701
show	-11.8702
cism	-11.8702
nners	-11.8704
guez	-11.8704
Anc	-11.8704
child	-11.8704
▁confer	-11.8705
Lauren	-11.8706
Lesl	-11.8706
▁Trib	-11.8707
▁Alban	-11.8707
Op	-11.8708
aß	-11.8708
▁Mull	-11.8709
POR	-11.8709
▁Direct	-11.8709
teaus	-11.871
tudents	-11.8711
XT	-11.8711
▁ARTS	-11.8711
▁You	-11.8712
▁Leco	-11.8713
rl	-11.8714
RK	-11.8714
▁Nik	-11.8714
▁else	-11.8715
alog	-11.8715
▁sale	-11.8718
léme	-11.8718
▁Duch	-11.8721
hoice	-11.8721
▁Studi	-11.8721
pport	-11.8724
▁ABR	-11.8724
▁(2011	-11.8724
▁participator	-11.8725
actic	-11.8727
▁Vol	-11.8727
uality	-11.8727
▁esp	-11.8728
ngaged	-11.8729
fferi	-11.8729
strict	-11.8729
▁practical	-11.873
ookstore	-11.873
amel	-11.8732
eaux	-11.8738
esthetics	-11.8741
▁Clo	-11.8742
ijon	-11.8742
▁perfor	-11.8742
▁retro	-11.8742
▁meanin	-11.8743
ontinuous	-11.8745
penden	-11.8745
ONS	-11.8745
▁neg	-11.8747
▁syn	-11.8748
vity	-11.8748
▁Hi	-11.8748
quare	-11.8749
su	-11.875
▁Gord	-11.8751
▁Alte	-11.8752
féren	-11.8754
card	-11.8755
vidi	-11.8757
eyond	-11.8758
▁impl	-11.8758
▁Stee	-11.8758
▁happening	-11.8758
▁Kap	-11.8762
tects	-11.8763
4-2	-11.8765
▁roo	-11.8767
Mer	-11.8767
▁Slov	-11.877
▁Cul	-11.8771
tude	-11.8773
ussi	-11.8775
pening	-11.8777
▁admi	-11.8778
▁PR	-11.8778
RO	-11.8778
▁semi	-11.8779
NDA	-11.878
AB	-11.878
▁Ev	-11.8782
Dom	-11.8782
resist	-11.8783
rbor	-11.8785
cade	-11.8788
covering	-11.8791
conte	-11.8793
ainst	-11.8794
apal	-11.8794
LL	-11.8797
AN	-11.8798
orative	-11.8798
▁bran	-11.88
▁tele	-11.88
gure	-11.8801
sch	-11.8802
ón	-11.8802
▁sim	-11.8806
▁Dok	-11.8807
ometimes	-11.881
▁Spai	-11.881
Nan	-11.8811
96	-11.8812
essors	-11.8812
▁conference	-11.8812
ouble	-11.8815
udie	-11.8815
Salo	-11.8817
wings	-11.8822
dges	-11.8822
▁actor	-11.8824
avo	-11.8825
eme	-11.8825
▁szer	-11.8826
▁positi	-11.8826
Alan	-11.8827
rovocation	-11.8828
▁deli	-11.8829
Man	-11.8829
▁cosmo	-11.8835
▁Shows	-11.8835
studios	-11.8836
andem	-11.8836
▁equ	-11.8836
▁mater	-11.8849
▁subm	-11.885
▁advan	-11.8851
fli	-11.8852
▁Flux	-11.8859
xtensive	-11.886
▁Por	-11.8861
▁arrange	-11.8861
▁musician	-11.8863
rams	-11.8864
lood	-11.8864
Andre	-11.8868
olic	-11.8869
▁Intern	-11.887
covery	-11.887
tments	-11.8873
found	-11.8875
mono	-11.8875
fession	-11.8875
CS	-11.8875
venor	-11.8876
xchange	-11.8878
Bos	-11.8879
xha	-11.888
ilian	-11.888
eval	-11.8881
gai	-11.8886
isplay	-11.8887
▁cosm	-11.8889
enga	-11.8891
Ken	-11.8894
rocess	-11.8896
▁polic	-11.8896
▁8,	-11.8896
olved	-11.8905
lisation	-11.8906
▁Wilk	-11.8906
embo	-11.8909
▁Sté	-11.8909
academic	-11.8911
▁rename	-11.8912
▁screening	-11.8916
▁gl	-11.892
arna	-11.8921
▁Ob	-11.8921
nction	-11.8921
oph	-11.8925
Ha	-11.8927
▁Lands	-11.8932
rne	-11.8932
▁Gilli	-11.8942
oef	-11.8944
utel	-11.8944
gary	-11.8946
ource	-11.8951
orical	-11.8952
ackf	-11.8954
íg	-11.8956
▁Thé	-11.8958
cla	-11.8962
▁journ	-11.8963
▁Head	-11.8965
▁Exh	-11.8969
roce	-11.8971
▁Wal	-11.8973
quat	-11.8974
IV	-11.8984
herm	-11.8984
▁Mora	-11.8986
▁val	-11.8987
▁defi	-11.8988
▁Cler	-11.8989
riting	-11.8993
veil	-11.8994
ack	-11.8994
del	-11.8995
elc	-11.8996
ffin	-11.8997
▁Gia	-11.9
▁Au	-11.9004
icat	-11.9005
nvited	-11.9006
ings	-11.9008
▁commo	-11.9009
▁territori	-11.9012
vals	-11.9012
▁signifi	-11.9013
jin	-11.9016
ssible	-11.902
Hon	-11.9022
▁brea	-11.9028
ondé	-11.903
cases	-11.9032
cant	-11.9033
lim	-11.9033
partments	-11.9038
▁annu	-11.9039
Rose	-11.904
▁TAL	-11.9044
icul	-11.9046
aft	-11.9047
▁Vau	-11.9049
TURE	-11.905
Mal	-11.9051
▁fea	-11.9052
orary	-11.9059
ds	-11.9066
burge	-11.9069
base	-11.9072
user	-11.9077
ldi	-11.9079
ssembl	-11.9081
vert	-11.9081
ctive	-11.9084
entary	-11.9087
▁Bucha	-11.9087
chell	-11.9088
jan	-11.9088
consist	-11.909
▁Irma	-11.91
tensive	-11.9106
ffo	-11.9106
▁administrat	-11.9111
-2020	-11.9116
win	-11.9118
quest	-11.9119
BLI	-11.9119
doni	-11.912
rm	-11.9122
offs	-11.9128
rator	-11.914
▁sup	-11.9141
etz	-11.9141
2020)	-11.9142
▁tha	-11.9143
curators	-11.9143
▁Dav	-11.9145
▁Asso	-11.9146
exte	-11.9148
crete	-11.9149
mman	-11.9149
stone	-11.9153
isks	-11.9155
▁Gri	-11.9157
rating	-11.916
wler	-11.9162
ssing	-11.9164
offr	-11.9165
easing	-11.9167
▁Fu	-11.9167
IL	-11.917
uga	-11.9175
anical	-11.9176
Sal	-11.9178
ych	-11.9179
nnie	-11.9192
llier	-11.9194
▁Alter	-11.9197
▁Arp	-11.9199
▁FA	-11.92
pote	-11.9202
rti	-11.9202
15.	-11.9203
ground	-11.9205
tland	-11.9207
pert	-11.9207
erri	-11.9209
▁premi	-11.9218
▁condu	-11.9219
▁Sonn	-11.9224
erba	-11.9229
tatio	-11.9229
ouris	-11.923
enni	-11.9232
ohan	-11.9232
▁conc	-11.9234
lbe	-11.9236
▁actu	-11.9236
▁sati	-11.9237
▁sha	-11.924
uction	-11.9241
leine	-11.9244
▁installati	-11.9245
▁mobil	-11.9258
SES	-11.9263
▁meaning	-11.9268
nesses	-11.927
▁Lande	-11.927
atalyst	-11.9278
athis	-11.9278
arie	-11.9282
runs	-11.9285
pian	-11.9289
ére	-11.9289
▁dra	-11.929
▁Lang	-11.9294
▁(2007	-11.9295
By	-11.9298
▁stabili	-11.9299
▁launching	-11.93
▁Mic	-11.93
cles	-11.9306
▁colle	-11.9309
▁pas	-11.9313
ST	-11.9313
lue	-11.9317
chor	-11.9319
▁top	-11.9319
▁ecolog	-11.9339
rnb	-11.9342
cholarship	-11.9347
Mo	-11.9349
▁kin	-11.9349
atures	-11.9352
oin	-11.9354
Sand	-11.9358
emon	-11.9361
quip	-11.9361
▁appar	-11.9362
▁offe	-11.9371
▁Belle	-11.9375
compass	-11.9381
anad	-11.9384
▁bou	-11.9385
sing	-11.9391
▁resu	-11.9396
assag	-11.9398
gene	-11.9399
mier	-11.9405
▁impo	-11.9406
dimension	-11.9412
▁Tou	-11.9418
TEX	-11.9419
tin	-11.9422
SITION	-11.9423
wit	-11.943
10.	-11.9431
▁dai	-11.9434
▁Anto	-11.944
cation	-11.944
▁lasa	-11.9441
near	-11.9445
ucke	-11.9452
iti	-11.9461
ttel	-11.9461
insi	-11.9467
ama	-11.9468
196	-11.9469
rli	-11.947
▁eco	-11.9478
gro	-11.9479
ati	-11.9489
▁Dub	-11.9496
ronic	-11.9498
XI	-11.9502
▁Books	-11.9507
▁Pam	-11.951
idate	-11.9511
▁Eas	-11.9512
fact	-11.9529
▁hour	-11.9533
▁apart	-11.9543
rth	-11.9544
number	-11.9547
▁defin	-11.9553
forms	-11.956
cera	-11.9561
hap	-11.9563
1952	-11.9563
amela	-11.9566
tates	-11.9579
GEL	-11.9579
Anth	-11.9581
ino	-11.9591
▁Kor	-11.9592
changes	-11.9595
▁lie	-11.9595
▁Mate	-11.962
erited	-11.9628
enda	-11.9642
▁Soo	-11.9644
lles	-11.965
▁AI	-11.9651
izo	-11.9653
hinki	-11.9668
illier	-11.968
lang	-11.9687
ges	-11.969
CC	-11.9696
egen	-11.9698
▁opposit	-11.9703
rounding	-11.9709
▁Pit	-11.9726
▁Ama	-11.9726
▁Kin	-11.9734
liet	-11.9735
iment	-11.9739
▁prob	-11.9744
▁Gar	-11.9744
▁bas	-11.9755
tri	-11.9757
poi	-11.9766
efen	-11.9767
achie	-11.9769
▁Dor	-11.9769
▁Cast	-11.9772
ools	-11.9775
▁op	-11.9777
▁Alt	-11.9781
▁sea	-11.9782
nteres	-11.9791
ambu	-11.9798
entury	-11.9799
havi	-11.98
trea	-11.9805
lman	-11.981
zzo	-11.9813
dge	-11.9819
hapel	-11.9822
othe	-11.9823
ag	-11.9823
▁Dem	-11.9827
▁Polla	-11.9831
twent	-11.9836
ease	-11.9839
occu	-11.9846
organise	-11.9847
steria	-11.9848
▁though	-11.9853
biot	-11.986
NTER	-11.9863
pm	-11.9877
conne	-11.9878
▁ho	-11.988
▁exchang	-11.9882
▁UR	-11.9887
row	-11.9888
lows	-11.989
amy	-11.9893
udio	-11.9897
Sve	-11.9904
quar	-11.9907
iè	-11.991
▁Far	-11.9916
lmina	-11.9917
▁refu	-11.9922
ollaboration	-11.9934
▁Glas	-11.9935
pica	-11.9947
bservatory	-11.9949
eco	-11.9954
Cir	-11.9961
nker	-11.9971
▁Rel	-11.9972
▁grad	-11.9983
eeping	-11.9983
▁Gor	-11.9988
iums	-11.9991
▁adve	-11.9995
▁cons	-11.9996
▁extrac	-12.0003
pier	-12.001
Mark	-12.0015
▁temp	-12.0021
nc	-12.0024
▁hely	-12.0025
▁Pie	-12.0029
4-1	-12.003
▁filmmak	-12.0031
▁Ora	-12.0035
ision	-12.0041
rant	-12.0043
▁Nap	-12.0045
ommunities	-12.0047
▁favo	-12.0052
ify	-12.0052
▁Montp	-12.006
ombin	-12.0063
▁appli	-12.0069
estig	-12.0071
▁Mc	-12.0072
ieve	-12.0079
sá	-12.0093
▁Los	-12.0104
▁pra	-12.0121
forth	-12.0126
▁Let	-12.0136
▁head	-12.0152
inds	-12.0175
onment	-12.0184
pair	-12.0199
013	-12.0206
RC	-12.0207
▁fir	-12.021
itrine	-12.0214
ilt	-12.0224
▁pla	-12.0227
▁Dre	-12.0227
views	-12.0229
tting	-12.0239
▁Lem	-12.0246
▁ce	-12.0252
▁spa	-12.0258
cce	-12.0261
▁audi	-12.0264
iffe	-12.0273
manage	-12.0277
▁lev	-12.0297
vents	-12.0298
orm	-12.0304
anton	-12.0307
mad	-12.0315
-7	-12.0317
oires	-12.0319
▁assum	-12.0324
mong	-12.0325
▁hon	-12.0397
enou	-12.043
echnologies	-12.0432
eth	-12.0455
ertte	-12.0458
▁low	-12.047
ardo	-12.047
uti	-12.0476
Wh	-12.0482
ates	-12.0501
anned	-12.0506
mon	-12.0508
gon	-12.0518
erc	-12.0523
lets	-12.0524
nants	-12.0533
dencies	-12.0547
ata	-12.0553
emi	-12.0598
Sw	-12.0617
ys	-12.0626
mons	-12.0626
ket	-12.0628
revi	-12.0633
ift	-12.0634
▁fur	-12.0638
lestre	-12.0662
dra	-12.0663
▁Alp	-12.0669
Whi	-12.0706
▁sym	-12.0708
▁Mini	-12.0718
fus	-12.0724
ók	-12.0748
rze	-12.075
▁Emil	-12.078
arl	-12.0785
▁IC	-12.0794
▁Bri	-12.0805
nel	-12.0809
1993	-12.0813
UI	-12.0828
tement	-12.0829
amb	-12.0845
én	-12.086
▁researcher	-12.0879
82	-12.0882
Cy	-12.0891
vo	-12.0893
éd	-12.0898
osis	-12.0901
cid	-12.0907
ula	-12.0912
▁Stand	-12.0917
▁Dau	-12.0917
fa	-12.0935
ians	-12.0939
uses	-12.094
tio	-12.0962
▁Vall	-12.0963
▁sch	-12.0975
Ky	-12.0977
iss	-12.0978
rier	-12.0983
mor	-12.0986
gnes	-12.099
▁Ser	-12.0993
▁Ist	-12.1004
brid	-12.1007
oved	-12.1011
0-202	-12.1023
obile	-12.1069
▁hi	-12.1076
ole	-12.1085
revis	-12.1094
▁Bed	-12.1139
▁stru	-12.1144
▁repla	-12.1155
bec	-12.1161
▁Sc	-12.1172
rtis	-12.1174
Lis	-12.1206
▁qu	-12.1212
raft	-12.1216
abl	-12.1221
26	-12.1224
▁Che	-12.1224
Ar	-12.1235
edicat	-12.1242
.3	-12.1257
▁Isl	-12.1281
▁lea	-12.134
At	-12.1342
nterdisciplinary	-12.1348
▁Kil	-12.1358
stable	-12.1367
seas	-12.137
▁beg	-12.1371
nsche	-12.1373
ARE	-12.1376
mus	-12.138
▁ES	-12.1385
▁Nove	-12.1392
▁sz	-12.1408
3.	-12.1409
▁Fal	-12.142
alu	-12.1433
Lau	-12.1442
nied	-12.145
So	-12.1453
LER	-12.1483
▁diss	-12.1499
▁Cer	-12.1509
estern	-12.151
▁Tre	-12.1514
nda	-12.1581
▁Jul	-12.1588
dvance	-12.1593
▁arti	-12.1601
▁j	-12.1609
CEN	-12.161
nté	-12.1618
ury	-12.1632
metr	-12.1637
anders	-12.1658
ops	-12.166
fair	-12.1684
vice	-12.1688
Gill	-12.1691
▁Mass	-12.1691
2012	-12.1721
oire	-12.1732
▁extensi	-12.1738
▁Mad	-12.1739
nization	-12.1743
assed	-12.1744
curr	-12.1752
lumn	-12.1793
▁Sin	-12.1798
whe	-12.1811
risson	-12.182
ysteri	-12.1826
ong	-12.1844
▁Barr	-12.185
Athe	-12.185
inking	-12.1854
fice	-12.1854
tock	-12.188
ort	-12.1908
alent	-12.191
▁fu	-12.192
tori	-12.1922
tervention	-12.1954
▁esta	-12.1959
7,	-12.1969
LAC	-12.1976
▁user	-12.1986
▁lands	-12.2006
ég	-12.2048
onne	-12.2055
evant	-12.207
4)	-12.2071
(2	-12.2078
▁edi	-12.2081
▁convers	-12.2082
8.	-12.2087
▁reli	-12.2087
ild	-12.2104
Rich	-12.2112
llin	-12.2118
▁poi	-12.2124
▁missi	-12.2131
dances	-12.2134
(1	-12.214
ublished	-12.2145
ét	-12.2147
verall	-12.2158
omen	-12.2163
▁Stan	-12.2165
rown	-12.2196
ength	-12.2238
▁te	-12.2256
RAN	-12.2302
onument	-12.2316
tation	-12.2319
▁het	-12.2327
ntaneous	-12.2355
uilla	-12.2359
Collecti	-12.2372
dit	-12.24
illing	-12.2437
terms	-12.244
arts	-12.2462
March	-12.2465
tled	-12.2471
▁rega	-12.248
(3	-12.2484
rsity	-12.2499
OCA	-12.2499
ncing	-12.2509
iqu	-12.2543
▁Technolog	-12.2547
atives	-12.2551
Tri	-12.256
lding	-12.2561
2005	-12.2587
tan	-12.2588
eetings	-12.2614
▁awa	-12.2617
▁lim	-12.2624
rn	-12.2625
ooms	-12.2631
mat	-12.2643
▁Rive	-12.2655
▁thr	-12.2659
▁Mill	-12.2662
55	-12.2662
stand	-12.2669
▁Pli	-12.2675
▁Lit	-12.2718
▁Davi	-12.2739
ctor	-12.276
Sy	-12.2769
fficien	-12.2774
▁Lui	-12.2781
logical	-12.2797
ursday	-12.28
yne	-12.2801
▁passe	-12.2808
bo	-12.2849
pha	-12.285
neration	-12.2853
ently	-12.2896
ehind	-12.2903
onl	-12.2906
éba	-12.2917
ooperation	-12.2919
tant	-12.2935
üller	-12.2944
ens	-12.2946
thering	-12.2993
▁cl	-12.3004
DIO	-12.3017
▁aust	-12.3047
alin	-12.3077
pin	-12.314
evelopment	-12.3143
bou	-12.3195
rks	-12.3198
▁Ed	-12.3219
texts	-12.3249
die	-12.3267
▁RES	-12.3268
▁expe	-12.3273
▁Timi	-12.3295
▁Od	-12.3302
este	-12.3306
erma	-12.331
ains	-12.3316
roc	-12.3345
ré	-12.3375
▁incre	-12.3377
oins	-12.3401
▁selecti	-12.3418
cis	-12.342
Ver	-12.3425
articipants	-12.3427
iative	-12.3448
sti	-12.3449
cr	-12.3468
ats	-12.3473
▁profit	-12.3486
isation	-12.3505
▁Piet	-12.3506
mit	-12.3517
▁pur	-12.3517
nces	-12.3522
š	-13.2464
ã	-13.2465
Á	-13.2466
ê	-13.2467
É	-13.2468
«	-13.2469
`	-13.247
ï	-13.2471
[	-13.2472
‘	-13.2473
â	-13.2474
ç	-13.2475
Q	-13.2476
